#version: 0.2
Ġ t
Ġ a
h e
i n
r e
o n
Ġ the
e r
Ġ s
a t
Ġ w
Ġ o
e n
Ġ c
i t
i s
a n
o r
e s
Ġ b
e d
Ġ f
i ng
Ġ p
o u
Ġ an
a l
a r
Ġ to
Ġ m
Ġ of
Ġ in
Ġ d
Ġ h
Ġ and
i c
a s
l e
Ġ th
i on
o m
l l
e nt
Ġ n
Ġ l
s t
Ġ re
v e
Ġ e
r o
l y
Ġ be
Ġ g
Ġ T
c t
Ġ S
i d
o t
Ġ I
u t
e t
Ġ A
Ġ is
Ġ on
i m
a m
o w
a y
a d
s e
Ġ that
Ġ C
i g
Ġ for
a c
Ġ y
v er
u r
Ġ u
l d
Ġ st
Ġ M
' s
Ġ he
Ġ it
a tion
i th
i r
c e
Ġ you
i l
Ġ B
Ġ wh
o l
Ġ P
Ġ with
Ġ 1
t er
c h
Ġ as
Ġ we
Ġ (
n d
i ll
Ġ D
i f
Ġ 2
a g
e rs
k e
Ġ "
Ġ H
e m
Ġ con
Ġ W
Ġ R
h er
Ġ was
Ġ r
o d
Ġ F
u l
a te
Ġ at
r i
p p
o re
Ġ The
Ġ se
u s
Ġ pro
Ġ ha
u m
Ġ are
Ġ de
a in
a nd
Ġ or
i gh
e st
i st
a b
r om
Ġ N
t h
Ġ com
Ġ G
u n
o p
0 0
Ġ L
Ġ not
e ss
Ġ ex
Ġ v
r es
Ġ E
e w
i ty
a nt
Ġ by
e l
o s
o rt
o c
q u
Ġ from
Ġ have
Ġ su
i ve
o uld
Ġ sh
Ġ this
n t
r a
p e
ig ht
a rt
m ent
Ġ al
u st
e nd
- -
a ll
Ġ O
a ck
Ġ ch
Ġ le
i es
r ed
a rd
â Ģ
o ut
Ġ J
Ġ ab
e ar
i v
a lly
o ur
o st
g h
p t
Ġ pl
a st
Ġ can
a k
o me
u d
T he
Ġ his
Ġ do
Ġ go
Ġ has
g e
' t
Ġ U
r ou
Ġ sa
Ġ j
Ġ but
Ġw or
Ġ all
e ct
Ġ k
a me
Ġ will
o k
Ġ whe
Ġ they
i de
0 1
f f
i ch
p l
t her
Ġ tr
. .
Ġ int
i e
u re
a ge
Ġ ne
i al
a p
i ne
i ce
Ġ me
Ġ out
a ns
o ne
o ng
i ons
Ġ who
Ġ K
Ġ up
Ġ their
Ġ ad
Ġ 3
Ġ us
a ted
o us
Ġ more
u e
o g
Ġ St
i nd
i ke
Ġ so
i me
p er
. "
b er
i z
a ct
Ġ one
Ġ said
Ġ -
a re
Ġ your
c c
Ġ Th
Ġ cl
e p
a ke
a ble
i p
Ġ cont
Ġ which
i a
Ġ im
Ġ about
Ġ were
v ery
u b
Ġ had
Ġ en
Ġ comp
, "
Ġ In
Ġ un
Ġ ag
i re
a ce
a u
a ry
Ġ would
a ss
r y
Ġ âĢ
c l
o ok
e re
s o
Ġ V
i gn
i b
Ġ off
Ġ te
v en
Ġ Y
i le
o se
i te
o rm
Ġ 201
Ġ res
Ġ man
Ġ per
Ġ other
o rd
u lt
Ġ been
Ġ like
a se
a nce
k s
a ys
o wn
e nce
Ġ dis
c tion
Ġ any
Ġ app
Ġ sp
i nt
r ess
a tions
a il
Ġ 4
i cal
Ġ them
Ġ her
o unt
Ġ Ch
Ġ ar
Ġ if
Ġ there
Ġ pe
Ġ year
a v
Ġ my
Ġ some
Ġ when
o ugh
a ch
Ġ than
r u
o nd
i ck
Ġ over
v el
Ġ qu
Ċ Ċ
Ġ sc
r eat
r ee
Ġ It
o und
p ort
Ġ also
Ġ part
f ter
Ġ kn
Ġ bec
Ġ time
e ns
Ġ 5
o ple
Ġ what
Ġ no
d u
m er
a ng
Ġ new
- ---
Ġ get
o ry
i tion
in gs
Ġ just
Ġ into
Ġ 0
en ts
o ve
t e
Ġ people
Ġ pre
Ġ its
Ġ rec
Ġ tw
i an
ir st
ar k
o rs
Ġ work
a de
o b
Ġ she
Ġ our
w n
in k
l ic
Ġ 19
Ġ He
i sh
n der
a use
Ġ him
o ns
Ġ [
Ġ ro
f orm
i ld
a tes
v ers
Ġ only
o ll
Ġ spe
c k
e ll
a mp
Ġ acc
Ġ bl
i ous
u rn
f t
o od
Ġ how
h ed
Ġ '
Ġ after
a w
Ġ att
o v
n e
Ġ play
er v
i ct
Ġ could
i tt
Ġ am
Ġ first
Ġ 6
Ġ act
Ġ $
e c
h ing
u al
u ll
Ġ comm
o y
o ld
c es
a ter
Ġ fe
Ġ bet
w e
i ff
Ġ two
o ck
Ġ back
) .
id ent
Ġ under
r ough
s el
x t
Ġ may
r ound
Ġ po
p h
i ss
Ġ des
Ġ most
Ġ did
Ġ add
j ect
Ġ inc
f ore
Ġ pol
o nt
Ġ again
cl ud
t ern
Ġ know
Ġ need
Ġ cons
Ġ co
Ġ .
Ġ want
Ġ see
Ġ 7
n ing
i ew
Ġ This
c ed
Ġ even
Ġ ind
t y
Ġ We
a th
Ġ these
Ġ pr
Ġ use
Ġ because
Ġ fl
n g
Ġ now
Ġ âĢĵ
c om
i se
Ġ make
Ġ then
o wer
Ġ every
Ġ Un
Ġ sec
o ss
u ch
Ġ em
Ġ =
Ġ Re
i ed
r it
Ġ inv
l ect
Ġ supp
a ting
Ġ look
m an
p ect
Ġ 8
r ow
Ġ bu
Ġ where
if ic
Ġ years
i ly
Ġ diff
Ġ should
Ġ rem
T h
I n
Ġ ev
d ay
' re
r ib
Ġ rel
s s
Ġ def
Ġ right
Ġ sy
) ,
l es
0 00
h en
Ġ through
Ġ Tr
_ _
Ġ way
Ġ don
Ġ ,
Ġ 10
a sed
Ġ ass
ub lic
Ġ reg
Ġ And
i x
Ġ very
Ġin clud
o ther
Ġ imp
o th
Ġ sub
Ġ âĢĶ
Ġ being
a rg
Ġ Wh
= =
i ble
Ġ does
an ge
r am
Ġ 9
e rt
p s
i ted
at ional
Ġ br
Ġ down
Ġ many
a king
Ġ call
u ring
i ties
Ġ ph
i cs
a ls
Ġ dec
at ive
e ner
Ġ before
il ity
Ġ well
Ġ much
er son
Ġ those
Ġ such
Ġ ke
Ġ end
Ġ But
a son
t ing
Ġ long
e f
Ġ think
y s
Ġ bel
Ġ sm
i ts
a x
Ġ own
Ġ prov
Ġ set
i fe
m ents
b le
w ard
Ġ show
Ġ pres
m s
o met
Ġ ob
Ġ say
Ġ Sh
t s
f ul
Ġ eff
Ġ gu
Ġ inst
u nd
r en
c ess
Ġ ent
Ġ You
Ġ good
Ġ start
i nce
Ġ made
t t
s tem
o log
u p
Ġ |
u mp
Ġ hel
v ern
u lar
u ally
Ġ ac
Ġ mon
Ġ last
Ġ 200
1 0
Ġ stud
u res
Ġ Ar
s elf
a rs
m eric
u es
c y
Ġ min
ol low
Ġ col
i o
Ġ mod
Ġ count
Ġ Com
h es
Ġ fin
a ir
i er
âĢ Ķ
r ead
an k
a tch
e ver
Ġ str
Ġ point
or k
Ġ New
Ġ sur
o ol
al k
e ment
Ġ used
r act
w een
Ġ same
o un
Ġ Al
c i
Ġdiff ere
Ġ while
- -------
Ġ game
c ept
Ġ sim
. ..
Ġ inter
e k
Ġ report
Ġ produ
Ġ still
l ed
a h
Ġ here
Ġ world
Ġ though
Ġ num
ar ch
i mes
a le
Ġ Se
Ġ If
/ /
Ġ Le
Ġ ret
Ġ ref
Ġ trans
n er
u tion
t ers
Ġ take
Ġ Cl
Ġ conf
w ay
a ve
Ġ going
Ġ sl
u g
Ġ Americ
Ġ spec
Ġ hand
Ġ between
i sts
Ġ De
o ot
I t
Ġ ear
Ġ against
Ġ high
g an
a z
a ther
Ġ exp
Ġ op
Ġ ins
Ġ gr
Ġ help
Ġ requ
e ts
i ns
Ġ Pro
i sm
Ġ found
l and
a ta
u ss
a mes
Ġ person
Ġ great
p r
Ġ sign
Ġ An
' ve
Ġs omet
Ġ ser
h ip
Ġ run
Ġ :
Ġ ter
i rect
Ġ follow
Ġ det
i ces
Ġ find
1 2
Ġ mem
Ġ cr
e red
e x
Ġ ext
u th
en se
c o
Ġ team
v ing
o use
a sh
a tt
v ed
Ġ system
Ġ As
d er
i ves
m in
Ġ lead
Ġ Bl
c ent
Ġ around
Ġ govern
Ġ cur
vel op
a ny
Ġ cour
al th
a ges
i ze
Ġ car
o de
Ġ law
Ġ read
' m
c on
Ġ real
Ġ support
Ġ 12
. ...
Ġ really
n ess
Ġ fact
Ġ day
Ġ both
y ing
Ġ serv
Ġ For
Ġ three
Ġw om
Ġ med
o dy
Ġ They
5 0
Ġ exper
t on
Ġ each
a kes
Ġ che
Ġ cre
i nes
Ġ rep
1 9
g g
ill ion
Ġg rou
u te
i k
W e
g et
E R
Ġ met
Ġs ays
o x
Ġ during
e rn
i zed
a red
Ġ fam
ic ally
Ġh app
Ġ Is
Ġ char
m ed
v ent
Ġ gener
i ent
p le
i et
r ent
1 1
v es
p tion
Ġ 20
form ation
Ġ cor
Ġ offic
ie ld
Ġ too
is ion
Ġ inf
Ġ Z
t he
o ad
Ġ public
Ġp rog
r ic
* *
Ġ war
Ġ power
v iew
Ġ few
Ġ loc
Ġ different
Ġ state
Ġ head
' ll
Ġp oss
Ġ stat
r et
an ts
Ġ val
Ġ iss
Ġ cle
i vers
a nc
Ġ expl
Ġ another
Ġ Q
Ġ av
t hing
n ce
W h
Ġ child
Ġ since
i red
l ess
Ġ life
Ġ develop
i ttle
Ġ dep
Ġ pass
ã ĥ
Ġ turn
o rn
T his
b ers
r oss
Ġ Ad
Ġ fr
Ġ resp
Ġ second
o h
Ġ /
Ġ disc
Ġ &
Ġ something
Ġcom ple
Ġ ed
Ġ fil
Ġ month
a j
u c
Ġ government
Ġ without
Ġ leg
Ġ dist
Ġ put
Ġ quest
a nn
Ġ prot
2 0
Ġ never
i ence
Ġ level
Ġ art
Ġ things
Ġ might
Ġ effect
Ġcon tro
Ġ cent
Ġ 18
Ġ allow
Ġbe lie
ch ool
o tt
Ġ incre
Ġ feel
Ġ result
Ġ lot
Ġ fun
o te
Ġ ty
e rest
Ġ contin
Ġ using
Ġ big
2 01
Ġ ask
Ġ best
Ġ )
I N
Ġ opp
3 0
Ġ number
i ness
S t
le ase
Ġ ca
Ġ must
Ġ direct
Ġ gl
Ġ <
Ġ open
Ġ post
Ġ come
Ġs eem
or ding
Ġ week
ate ly
i tal
Ġ el
ri end
Ġ far
Ġ tra
in al
Ġ pri
Ġ US
Ġ place
Ġ form
Ġ told
" :
a ins
at ure
Ġ Trump
Ġ stand
Ġ #
i der
Ġ Fr
Ġ next
Ġ soc
Ġ pur
Ġ let
Ġ little
Ġ hum
Ġ i
r on
1 5
Ġ 15
Ġ commun
Ġ mark
Ġ There
Ġ wr
Ġ That
Ġ information
w ays
Ġ bus
a pp
Ġ invest
m e
Ġ hard
a ined
e ad
Ġ import
Ġ appro
Ġ test
Ġ tri
Ġ rest
o sed
Ġ full
Ġ care
Ġ Sp
Ġ case
O N
Ġ sk
Ġ less
Ġ +
Ġpar tic
Ġ Pl
a bly
u ck
i shed
c hn
b e
Ġ list
a tor
Ġ top
Ġ adv
Ġ Be
r uct
Ġ dem
r ation
l ing
g y
r een
g er
Ġ home
Ġ left
Ġ better
Ġ data
Ġ 11
Ġ attack
Ġpro ble
l ine
ar ds
Ġ beh
r al
Ġ How
Ġ She
ar ge
Ġ --
: //
Ġ bro
Ġ Ph
a ts
Ġ build
w w
i ded
a im
a ses
en cy
Ġ main
i ned
Ġ including
Ġ {
Ġ got
Ġ interest
Ġ keep
Ġ X
Ġ eas
a ining
Ġ class
âĢ ¦
Ġ No
Ġ var
Ġ small
am ple
A T
Ġ ide
Ġ So
Ġre ce
Ġ polit
Ġm ov
Ġ plan
Ġ percent
i ving
Ġ camp
Ġ pay
1 4
s c
i sed
Ġ unt
o ney
pl oy
= ===
Ġ didn
Ġ Ind
e ls
er tain
Ġ pos
_ ___
i ver
Ġ process
Ġ program
if ied
Ġ Rep
1 6
u ro
ol ogy
at ter
i na
Ġ name
Ġ All
Ġ four
Ġ return
v ious
b s
Ġ called
Ġ move
Ġ Sc
i rd
Ġ group
Ġ bre
Ġ men
Ġ cap
t en
e e
Ġ dri
l eg
h ere
ut hor
Ġ pat
Ġ current
i des
Ġ pop
t o
en tion
Ġ always
Ġ mil
Ġ women
Ġ 16
Ġ old
i ven
r aph
Ġ Or
r or
ent ly
Ġ near
Ġ Ex
re am
s h
Ġ 14
Ġ free
iss ion
st and
Ġ Con
al ity
u sed
1 3
Ġ design
Ġ change
Ġc hang
Ġ bo
Ġ vis
e mber
Ġ book
re ady
Ġ kill
2 5
p ped
Ġ away
Ġ able
Ġ country
Ġ const
a rn
Ġ order
A R
i or
i um
or th
1 8
ail able
Ġ sw
Ġ million
Ġ 13
a tic
t ed
Ġ Go
Ġ oper
e ng
Ġ thing
aj or
c onom
Ġ Comm
Ġ why
u red
u ral
Ġ school
b y
Ġ Mar
Ġ aff
Ġ days
Ġ ann
u sh
a ne
I f
e g
Ġ prof
Ġ health
o uth
B ut
i onal
. ,
Ġ sol
Ġal ready
Ġ 30
Ġcha ract
H e
Ġ friend
E S
i ans
i cle
' d
Ġ On
Ġl east
Ġ prom
Ġ dr
Ġ hist
i ther
Ġ est
i qu
1 7
s on
Ġ tell
Ġ talk
o hn
o int
l ection
A N
Ġ until
a ugh
Ġ later
Ġ ve
Ġ view
en ding
i ved
Ġ word
w are
Ġ cost
Ġ enough
Ġ give
Ġ United
Ġ techn
a rent
O R
Ġ par
Ġ Dr
Ġ 2016
r ist
e ring
Ġ Â
Ġ large
s ide
a cy
c cess
Ġ win
Ġ important
Ġ 199
Ġ doesn
Ġ 17
Ġ business
Ġ clear
Ġr ese
" ,
u ry
Ġ equ
a ster
a lf
Ġ American
n ect
Ġex pect
ivers ity
Ġ occ
Ġ Fl
Ġ kind
Ġ mean
Ġ past
Ġ dev
Ġ bas
l et
r aft
Ġ organ
Ġ del
Ġper form
Ġ story
Ġ season
Ġ Col
Ġ claim
Ġc ame
Ġ within
Ġ line
Ġ project
Ġ At
Ġ control
en ded
Ġ Sy
Ġ air
iz ation
Ġ *
l ey
Ġ money
i dd
Y ou
f or
Ġ family
Ġ making
Ġ bit
Ġ police
Ġhapp en
Ġ vers
o ny
u ff
Ġ When
Ġ sit
ide o
l f
i son
Ġ sure
g in
Ġapp ear
Ġ light
Ġ es
o f
Ġ water
Ġ times
n ot
Ġ grow
Ġ company
Ġ Te
o ws
Ġ mar
our ce
i ol
a rm
b r
Ġ example
Ġco nc
Ġ fore
Ġ To
p ro
E N
r ies
Ġ 25
Ġ Can
n ey
Ġ actually
Ġ ever
u rity
a ken
a ps
Ġ tax
Ġ major
a ma
Ġ often
e ral
Ġ human
Ġ job
i ster
Ġ available
o cr
e nn
a id
i vid
Ġ record
? "
Ġ sing
Ġ Am
id ence
Ġ news
s ter
Ġ econom
Ġfoll owing
Ġ Br
i sing
Ġ hour
m ost
u ment
Ġ sex
Ġ desc
Ġbe come
Ġ Ed
Ġt ook
Ġ having
Ġ product
a ult
A s
a ring
Ġme ans
Ġ hop
u ne
Ġ cho
Ġ certain
Ġ non
Ġ deal
2 4
l ement
o ci
e ne
Ġ side
Ġ Pr
Ġ May
Ġ reason
u ed
c hed
u lation
Ġ elect
Ġ official
Ġp ossible
Ġ hold
an ds
o ts
Ġ city
o ries
Ġ sever
Ġ children
Ġ once
Ġ activ
l er
Ġ night
i tions
Ġ John
a pe
p lay
Ġ done
Ġ lim
Ġ working
Ġ Pres
or ld
e b
Ġ Co
Ġ body
a ils
u tes
Ġ Mr
Ġ whether
Ġ author
r op
Ġpr oper
Ġ seen
) ;
Ġ fac
Ġ Su
Ġ cond
i ting
Ġ course
Ġ }
- ---------------
a ign
Ġ event
Ġ eng
Ġ pot
Ġ intern
i am
Ġ short
em pt
ã Ĥ
Ġ God
i lar
8 0
Ġ orig
I S
o urn
ab ility
it ive
Ġ dam
Ġ 100
Ġ press
Ġ doing
Ġ protect
r ing
Ġ thought
Ġ question
r ew
Ġ War
Ġs everal
Ġ State
Ġ given
Ġ fund
Ġ Tw
Ġ went
a nces
w ork
p or
m y
4 0
Ġ arg
art ment
us tom
Ġp olic
Ġ meet
Ġ creat
2 2
Ġ States
Ġ games
r aw
ut ure
Ġunder stand
u rs
Ġ Ob
l ish
s y
Ġ makes
Ġ won
a gon
Ġ htt
Ġ love
ent ial
Ġ complete
p ar
Ġ Im
A L
Ġ account
Â ł
o red
v ert
Ġ ident
Ġ 2015
Ġot hers
Ġ Min
i ber
ve rage
T here
it ional
d d
Ġp rob
Ġ young
Ġ along
Ġ according
Ġ yet
Ġ members
Ġ What
o id
Ġ Man
A nd
Ġ among
a i
Ġ employ
Ġ Res
Ġ >
Ġin vol
Ġ low
a f
Ġ Car
Ġ hig
Ġ One
Ġ Sec
i nation
Ġ likely
Ġ ant
a ged
Ġ Russ
Ġ ben
Ġr ele
F or
b ack
Ġ Not
Ġ president
b all
Ġ access
ivid ual
Ġ Dem
Ġ Euro
6 0
Ġ known
i rl
Ġ Gr
Ġ early
u se
i ety
âĢ ĵ
Ġ fight
Ġ sent
Ġ today
Ġ market
" .
Ġ based
Ġ strong
ur ther
Ġ deb
m ber
Ġ problem
Ġ death
Ġ social
i mate
A S
or tun
Ġ campaign
e ry
C h
Ġ ey
i ally
Ġ mus
w h
p os
Ġ er
Ġ saf
Ġ months
i ron
Ġ viol
Ġ five
Ġ stre
Ġ players
i nc
a ld
y ear
a un
Ġ success
Ġ present
e rence
Ġ 2014
Ġs ugg
Ġpart icular
Ġ try
Ġ suggest
Ġ Christ
o nes
Ġ priv
2 3
Ġ crit
Ġ land
Ġ local
i fy
2 9
Ġ aut
E D
Ġ Gu
Ġ mult
Ġ political
Ġas ked
Ġ former
it ter
r ipt
Ġ close
Ġ pract
Ġ York
Ġ getting
Ġa cross
Ġ comb
Ġbel ieve
Ġ z
Ġto get
Ġ together
Ġ Cent
i rc
Ġ individual
Ġ Mc
2 7
i sk
Ġ Eng
Ġ face
Ġ 24
Ġ value
Ġ area
e v
Ġ writ
Ġ President
Ġv ot
Ġ key
Ġ mom
p ut
Ġ anything
Ġexper ience
a ttle
Ġ mind
a ff
o mm
Ġ future
g ed
Ġ cut
Ġt ot
i tch
Ġ video
Ġinvest ig
Ġ net
Ġ My
r ict
i en
. )
Ġ impro
th ough
w ards
Ġ connect
Ġ Med
se lves
ens ive
m b
o ber
at ors
A n
Ġ 50
Ġr edu
re sent
Ġ above
Ġ fre
Ġ Europe
s w
Ġ amount
Ġ App
Ġ either
Ġm ilit
Ġan al
Ġ fail
Ġ En
a les
Ġ special
Ġ black
I T
c her
Ġ looking
Ġ fire
y n
Ġ almost
o on
Ġ study
Ġ miss
c hes
r own
Ġ tre
Ġ community
Ġ media
Ġ food
Ġ comes
Ġ University
Ġ single
W hat
u ly
Ġ half
a gue
h od
Ġ Republic
Ġ started
Ġ quick
o to
b ook
Ġ issue
i tor
Ġ else
Ġ consider
2 6
ro du
Ġt aken
2 8
9 9
Ġ With
Ġ true
Ġ wa
Ġt rad
Ġ ago
Ġ mess
i ef
Ġ added
o ke
Ġ bad
Ġf av
3 3
Ġ similar
a sk
Ġ Don
Ġ character
or ts
Ġ House
Ġ reported
Ġ type
v al
i od
Ġ However
Ġt arg
Ġent ire
p ping
Ġ history
Ġ live
ff ic
. .......
ed eral
Ġt rying
Ġdisc uss
Ġ Har
a ces
l ished
Ġ self
o sp
r est
Ġ room
e lt
Ġ fall
ol ution
Ġ et
Ġ x
Ġi sn
Ġid ea
b o
Ġ sound
Ġ Dep
Ġ someone
c ially
u lly
Ġf oc
Ġ object
i ft
a per
Ġ player
Ġ rather
Ġ service
as hing
Ġ Do
Ġ Part
r ug
m on
p ly
Ġ mor
Ġ nothing
Ġprov ide
I C
u ng
Ġ party
Ġ exist
Ġ mag
7 0
Ġr ul
Ġ house
Ġ behind
Ġhow ever
Ġ World
Ġ sum
Ġapp lic
Ġ ;
Ġ function
g r
Ġ Pol
Ġ front
2 00
Ġ series
Ġ tem
Ġ typ
il ls
Ġ opt
Ġ points
Ġ below
i tted
Ġ specific
Ġ 2017
u mb
Ġ ra
Ġpre vious
Ġ pret
r eme
Ġ custom
Ġ court
Ġ Me
Ġ repl
Ġw hole
g o
c er
Ġt reat
Ġ Act
Ġ probably
Ġ learn
e nder
Ġ Ass
Ġ version
n ow
Ġ check
Ġ Cal
R E
min ist
O n
our ces
Ġ benef
Ġ doc
Ġd eter
Ġ enc
Ġ super
Ġ address
Ġ vict
Ġ 2013
Ġm eas
t r
Ġ field
W hen
Ġsign ific
u ge
Ġ feat
Ġ common
l oad
Ġ begin
Ġ bring
Ġ action
er man
Ġde scrib
Ġ indust
Ġw anted
r ied
m ing
Ġatt empt
4 5
f er
Ġ due
r ession
# #
Ġ shall
Ġ six
o o
Ġ step
Ġ pub
Ġhim self
Ġ 23
Ġ cop
Ġ dest
Ġ stop
A C
ib ility
Ġ lab
i cult
Ġ hours
Ġ create
Ġf urther
Ġ America
Ġ City
Ġd ou
h ead
S T
Ġ North
c ing
Ġ national
u le
Ġ Inst
Ġ taking
Ġ Qu
i rt
Ġ red
Ġ research
v iron
Ġ Ge
Ġ break
a na
Ġ space
at erial
Ġ recent
Ġ Ab
Ġ general
Ġ hit
Ġ period
Ġ everything
ive ly
Ġ phys
Ġs aying
an ks
Ġc ou
Ġ cult
a ced
e al
u ation
Ġc oun
l u
Ġ include
Ġ position
Ġ After
ĠCan ad
Ġ Em
Ġ imm
Ġ Red
Ġ pick
Ġ compl
Ġ matter
r eg
e xt
an gu
i sc
o le
a ut
Ġcom pet
e ed
f ect
Ġ 21
Ġ Sen
Ġ These
a sing
Ġc annot
Ġ init
Ġ relations
a ched
Ġ bar
Ġ 40
Ġ TH
Ġ 2012
Ġ vol
Ġ ground
Ġ security
Ġu pd
i lt
3 5
Ġcon cern
Ġ Just
Ġ white
Ġse ems
Ġ Her
pe cially
i ents
Ġann oun
Ġ fig
igh ts
Ġ stri
l ike
i ds
Ġs us
Ġ watch
Ġ â
Ġ wind
Ġ Cont
Ġit self
Ġ mass
A l
y le
i que
Ġ National
Ġ abs
Ġ pack
Ġ outside
Ġ anim
Ġ pain
e ter
Ġman ag
d uct
o gn
Ġ ]
Ġ Sept
s ec
o ff
Ġ Jan
Ġ foot
a des
Ġ third
Ġ mot
Ġ evidence
i nton
Ġ threat
a pt
p les
c le
Ġ lo
Ġ decl
Ġ item
m edi
Ġ represent
o mb
a mer
Ġ significant
o graph
s u
Ġ cal
i res
0 000
I D
A M
Ġsim ply
Ġlong er
Ġ file
O T
c he
S o
at eg
o rg
Ġ His
Ġ ener
Ġ dom
Ġ upon
i li
" :"
Ġthem selves
Ġ coming
Ġ quite
Ġdiff icult
Ġ Bar
il ities
r el
en ds
c ial
6 4
Ġ woman
r ap
y r
Ġ necess
i ps
Ġ text
Ġ require
Ġ military
Ġ review
Ġ respons
7 5
Ġ subject
Ġ instead
Ġ issues
Ġ gen
" ,"
Ġmin utes
Ġwe ap
r ay
a med
t ime
b l
H ow
Ġ code
Ġ Sm
Ġ higher
Ġ Ste
r is
Ġ page
Ġstud ents
Ġ Intern
Ġ method
Ġ Aug
Ġ Per
Ġ Ag
Ġ policy
Ġ Sw
Ġ exec
Ġ accept
u me
ri but
Ġ words
Ġ final
Ġ changes
ĠDem ocr
Ġ friends
Ġ respect
Ġ ep
Ġ compan
i vil
Ġ damage
* ***
og le
viron ment
Ġ neg
en tal
Ġ ap
Ġ total
i val
! "
l im
Ġ needs
Ġa gre
Ġ development
Ġ age
i ple
2 1
Ġ results
Ġ Af
S h
Ġ gun
Ġ Obama
r oll
Ġ @
Ġ rights
Ġ Brit
Ġ running
Ġwa sn
Ġ port
Ġ rate
Ġ pretty
Ġ target
Ġ saw
Ġ circ
Ġ works
i cro
a lt
o ver
w ww
T hat
l ier
Ġ everyone
u de
Ġ pie
idd le
r ael
Ġ rad
Ġ block
Ġ walk
T o
ã ģ
n es
Ġ Aust
a ul
r ote
Ġ South
ess ion
o ph
Ġ shows
Ġ site
Ġ jo
Ġ risk
c lus
l t
Ġin j
i ding
Ġ Spe
Ġ chall
i rm
Ġ 22
it ting
s tr
Ġ hy
L E
k ey
Ġbe gan
a tur
ash ington
l am
ĠD av
b it
Ġ size
Ġ Par
3 8
o urnal
f ace
Ġde cision
Ġ larg
Ġ jud
r ect
Ġ continue
Ġ Oct
o vered
Ġ Int
== ======
Ġ parent
Ġ Will
Ġ easy
Ġ drug
an ger
Ġ sense
Ġ di
i day
Ġ energy
i stic
Ġass oci
ar ter
o bal
e ks
Ġ El
ur ch
Ġ girl
o e
i tle
Ġ 28
Ġ Che
Ġ request
Ġ soon
Ġ host
k y
Ġ states
o mes
Ġ material
l ex
Ġmo ment
Ġan sw
on se
Ġ especially
Ġ norm
Ġ services
p ite
r an
Ġ role
4 4
) :
Ġc red
C l
_ _______
Ġ mat
Ġ log
Ġ Clinton
O U
Ġ office
Ġ 26
Ġ charg
Ġ track
m a
Ġ heart
Ġ ball
Ġ personal
Ġ building
n a
s et
b ody
Ġ Black
Ġincre ase
i tten
Ġ needed
3 6
3 2
= "
Ġ lost
Ġbec ame
Ġ groups
Ġ Mus
Ġ wrote
Ġ Pe
Ġ prop
j oy
Ã ©
Ġ White
Ġ dead
. '
Ġ http
Ġwe bs
O S
Ġ inside
Ġ wrong
Ġ statement
Ġ ...
y l
Ġ film
Ġ music
Ġ share
if ication
Ġ release
Ġ forward
Ġ stay
Ġcom put
it te
s er
Ġ original
Ġ card
Ġ cand
Ġ div
at ural
Ġf avor
O M
Ġ cases
u ses
Ġ section
Ġ leave
g ing
o ved
Ġ Washington
3 9
Ġ Gl
Ġ required
a ction
a pan
o or
i ter
Ġ King
Ġcount ries
Ġ German
l ling
Ġ 27
3 4
Ġquest ions
Ġ prim
Ġ cell
Ġ shoot
Ġany one
Ġ West
Ġa ffect
e pend
Ġ online
Ġ Israel
Ġ September
Ġ ability
Ġ content
i ses
Ġ reve
Ġ laun
Ġind ic
Ġ force
c ast
Ġ sold
a ving
f l
Ġ soft
Ġcompan ies
c eed
Ġ article
Ġ aud
Ġ rev
Ġ educ
Ġ playing
0 5
Ġ held
c tor
Ġ released
Ġf ederal
3 7
Ġ administ
Ġinter view
Ġ install
Ġ received
Ġ source
u k
P h
Ġ serious
Ġ created
Ġ cause
Ġim medi
Ġde fin
u el
Ġ Department
c tions
Ġ Cour
Ġ Now
z e
i tes
it ution
Ġ late
Ġ speak
n ers
Ġ legal
a ri
Ġ Cor
Ġw eeks
Ġ model
Ġ pred
Ġex act
B C
Ġ By
I NG
o sing
Ġt akes
Ġre gard
Ġopp ortun
Ġ price
Ġ 198
Ġ Apr
f ully
Ġ ord
Ġpro blems
r uction
h am
Ġ Count
le ge
Ġ leaders
E T
l ev
Ġ deep
ol ogical
e se
h aps
Ġ Some
Ġ pers
Ġ contract
Ġrelation ship
s p
o ud
Ġ base
4 8
m it
A d
an cial
Ġcon sum
Ġpot ential
Ġl angu
r em
e th
Ġre lig
r essed
6 6
Ġ link
Ġ lower
a yer
Ġ June
Ġf em
u nt
e rc
u rd
Ġ contact
Ġ ill
Ġ mother
Ġe stab
h tt
Ġ March
Ġ Bro
Ġ China
Ġ 29
Ġ squ
Ġ provided
Ġ average
as ons
Ġ 2011
Ġex am
l in
5 5
n ed
Ġ perfect
Ġt ou
al se
u x
Ġ buy
Ġ shot
Ġ collect
Ġ phot
Ġ played
Ġsur pr
Ġoffic ials
Ġ simple
a vy
Ġindust ry
Ġ hands
g round
Ġ pull
Ġ round
Ġ user
Ġ range
u ary
Ġ private
o ps
e es
Ġ ways
Ġ Mich
Ġ veh
Ġ except
Ġ terms
im um
p per
I ON
o res
Ġ Dragon
o ul
Ġ den
Ġ performance
Ġ bill
c il
4 7
Ġ environment
Ġ exc
a dd
Ġ worth
Ġ pict
Ġ chance
Ġ 2018
b or
Ġ speed
i ction
Ġal leg
Ġ Japan
at ory
re et
Ġ match
Ġ II
Ġ stru
or der
Ġ ste
Ġ living
Ġ struct
i no
Ġ separ
h ern
Ġ response
Ġen joy
Ġ via
A D
u ments
ac ebook
Ġ member
i br
i zing
Ġ tool
Ġ Mon
Ġ While
h ood
Ġ Ang
Ġ Def
Ġ offer
T r
a ur
Ġ turned
Ġ July
d own
an ced
Ġrec ently
Ġ Ear
Ġ ce
Ġ Star
Ġ Cong
r ought
Ġ blood
Ġh ope
Ġ comment
a int
Ġar ri
i les
Ġ particip
o ught
ri ption
0 8
4 9
Ġg ave
Ġ select
Ġ killed
sy ch
Ġg oes
i j
Ġ coll
Ġ impact
at ives
Ġ Ser
0 9
Ġ August
Ġ boy
d e
Ġ Des
Ġ felt
U S
Ġ expected
Ġ image
Ġ Mark
cc ording
o ice
E C
Ġ Mag
e ned
h old
Ġ Post
Ġpr event
N o
Ġ involved
Ġ eyes
Ġquick ly
A t
un k
Ġbeh av
Ġ ur
Ġ led
c ome
e y
Ġcan did
Ġear lier
Ġ focus
e ty
P ro
l edge
ix ed
i lled
Ġ popular
A P
Ġ sett
l ight
Ġv arious
in ks
Ġ levels
Ġ road
el lig
a bles
h el
itt ee
Ġ Gener
y pe
Ġ heard
i cles
Ġ mis
Ġ users
Ġ San
Ġ improve
Ġ father
Ġ search
T hey
v il
Ġprof ess
Ġk new
Ġ loss
Ġ events
6 5
Ġ billion
0 7
0 2
Ġ News
Ġ AM
Ġ cover
w here
ens ion
Ġ bott
Ġar eas
e nces
o pe
Ġ Twitter
a el
Ġ gets
Ġ Google
Ġ sn
i ant
Ġ vote
Ġn early
Ġin cluded
Ġ recogn
z z
m m
a led
Ġhapp ened
0 4
Ġ hot
Ġ whose
Ġ civil
Ġ suff
o es
it iz
ĠSy ri
Ġ respond
Ġ hon
Ġ features
Ġ economic
Ġ April
r im
Ġ technology
Ġ option
a ging
Ġp urch
R e
Ġ lat
ch ie
i sl
Ġ recomm
u f
Ġ training
Ġ effects
Ġ fast
Ġ 2010
Ġocc ur
Ġwe bsite
Ġ email
Ġs ens
e ch
Ġ oil
Ġin flu
Ġ currently
Ġ Sch
Ġ Add
Ġ goal
Ġ scient
Ġ conv
1 00
e my
Ġd ecided
Ġ travel
Ġm ention
L L
0 3
Ġ election
Ġ phone
Ġl ooks
Ġsit uation
Ġ cy
Ġ hor
b ed
Ġ Court
a ily
a ves
Ġ quality
Ġ Comp
w ise
Ġ table
Ġ staff
Ġ Wind
e tt
Ġt ried
id ered
Ġadd ition
Ġ box
Ġl ack
a rily
Ġ wide
Ġ mid
Ġ board
y sis
Ġ anti
h a
Ġ dig
e ning
Ġ dro
C on
6 8
Ġ slow
b ased
s equ
Ġ path
E x
a ker
Ġ worked
Ġ pen
Ġ engine
Ġl ooked
Ġ Super
Ġ Serv
Ġvic tim
U n
Ġ property
Ġ introdu
Ġexec ut
Ġ PM
L e
Ġ color
Ġ More
Ġ 60
Ġ network
Ġ date
c ul
id ge
Ġ extra
3 1
Ġ sle
6 7
Ġw ond
Ġ reports
j ust
Ġ Austral
Ġ capital
Ġ ens
Ġ command
Ġ allowed
Ġ prep
Ġ capt
h ib
Ġn umbers
c han
Ġ fair
m p
o ms
Ġ reach
W ith
t ain
Ġ broad
Ġc ouple
e cause
l ying
Ġ Feb
Ġ screen
Ġl ives
Ġp rior
Ġ Congress
A r
Ġapp roach
Ġ emer
a ries
Ġ Dis
s erv
Ġ Ne
Ġ built
c ies
Ġ repe
Ġ rules
f orce
Ġ Pal
Ġ financial
Ġcons idered
Ġ Char
n ces
Ġ IS
Ġb rought
Ġ bi
i ers
Ġ Sim
O P
Ġ products
Ġvi sit
Ġ document
Ġ conduct
Ġ completely
i ning
Ġ Calif
i bly
Ġ written
Ġ TV
e ments
Ġ draw
O ne
Ġ published
Ġ secret
r ain
h et
Ġ Facebook
on day
Ġ Up
Ġ sexual
Ġth ous
Ġ Pat
Ġ ess
Ġ standard
Ġ arm
g es
e ction
Ġ fell
Ġ foreign
a ni
Ġ Friday
Ġ regular
in ary
Ġincre ased
Ġ usually
Ġ demon
Ġ dark
Ġadd itional
r ol
Ġ Of
Ġ production
! !
und red
Ġ international
id ents
Ġ Free
r oup
Ġ race
Ġm ach
Ġ huge
A ll
l ear
ov ember
Ġ town
Ġatt ention
Ġ Off
y ond
Ġ Then
f ield
Ġ terror
r az
Ġ Bo
Ġme eting
Ġ Park
Ġar rest
Ġf ear
Ġ aw
Ġ Val
o ring
' ,
Ġ extreme
a rr
Ġ workers
A fter
Ġ 31
n et
a ment
Ġdirect ly
Ġ population
u be
Ġ October
Ġ IN
Ġ January
5 9
Ġ David
Ġ cross
c ember
Ġ First
Ġ message
i rit
Ġ nation
Ġ poll
is ions
Ġ answer
n y
is ode
Ġ carry
Ġ Russia
Ġh ear
e ngth
r oy
Ġ natural
in ally
Ġ dog
m itted
Ġ trade
Ġsub st
Ġ multiple
ĠAf ric
Ġf ans
Ġ sort
Ġ global
i cation
Ġ Wed
a ra
Ġa chie
Ġ language
v ey
Ġ tal
Ġ necessary
Ġ details
Ġ sen
Ġ Sund
Ġ Reg
Ġ Rec
0 6
Ġ sil
ress ive
Ġ medical
un ch
or nia
Ġ und
f ort
o cks
Ġ Monday
ues day
c raft
7 7
u rt
Ġ ver
Ġ Hill
Ġre ceive
Ġ morning
es tern
Ġ bank
Ġ sat
ir th
Ġ High
Ġ device
Ġ THE
Ġ Center
Ġ safe
Ġ ple
Ġ Canada
Ġsystem s
Ġass ist
Ġ surv
Ġ battle
Ġ Soc
ver tis
S he
Ġ paper
Ġ growth
Ġ cast
S c
Ġpl ans
l led
Ġ parts
Ġ wall
Ġmov ement
Ġ practice
im ately
Ġ display
Ġ sometimes
o mp
Ġ Paul
Ġ Yes
k ing
5 8
o ly
Ġ son
Ġ avoid
o kes
Ġ Jew
Ġto wards
a sc
Ġ //
ĠK ore
Ġ talking
Ġ correct
Ġs pent
i cks
i able
e ared
Ġ term
Ġw ants
o ming
Ġ ut
Ġd oub
Ġ forces
Ġ please
6 9
Ġ November
at form
on don
Ġ ones
Ġim mediately
Ġ Russian
Ġ Met
Ġ deg
Ġ parents
C H
Ġ Americans
a ly
Ġ Mod
Ġ shown
Ġcond itions
Ġ stuff
Ġ reb
Ġ Your
Ġ includes
n own
Ġ Sam
Ġexper ien
m ission
Ġ Even
a ught
Ġ announced
Ġ Republican
Ġd etermin
Ġ described
ĠC ounty
( )
Ġ door
Ġ changed
Ġne igh
Ġ Here
Ġ clean
Ġ pan
Ġ December
Ġ European
i ring
a pter
Ġ club
Ġ Tuesday
Ġ paid
Ġ Net
Ġ attacks
Ġchar acters
Ġ alone
Ġ director
d om
Ġ 35
Ġ load
Ġr out
Ġ California
Ġf inally
Ġ rac
Ġcon tr
Ġex actly
r esh
p ri
Ġ Islam
Ġ nature
Ġcar eer
Ġ latest
Ġcon vers
Ġ Sl
p ose
c ient
Ġ Inc
i vity
8 8
Ġ Att
Ġ Mor
nes day
Ġ weight
k en
Ġ note
Ġte ams
Ġ \
a irs
Ġ Green
Ġh undred
on ent
Ġstr eng
Ġcons ist
ic ated
Ġreg ul
Ġ lic
a stic
Ġ ten
urs day
elli gence
ous ly
Ġ UK
B I
Ġco sts
Ġin depend
Ġ AP
Ġ normal
Ġ hom
Ġob vious
Ġ swe
Ġ star
Ġ ready
a cher
Ġim plement
g est
Ġ song
Ġ Get
Ġ Lab
Ġ interesting
u sing
Ġ giving
Ġ Sunday
Ġ etc
Ġ middle
Ġ remember
r ight
os ition
u tions
Ġ max
4 6
Ġyour self
Ġ demand
Ġ treatment
Ġ danger
Ġ Cons
Ġ guy
Ġ British
Ġ physical
Ġ related
Ġre main
Ġcould n
Ġr efer
Ġc itiz
b ox
E NT
b oard
Ġ inn
I G
e ro
Ġ Street
osp ital
r ench
c hers
Ġ stra
O L
a ger
Ġ AN
Ġeas ily
I A
en ge
i ny
Ġc los
oc ked
Ġ uses
Ġ Coun
I m
u ild
? ?
m ore
Ġ ang
Ġ write
ol ute
5 7
Ġ leader
Ġ reading
< /
Ġau tom
e sts
4 3
Ġleg isl
Ġ Gold
Ġ designed
Ġ ST
Ġ Leg
a res
Ġ beaut
Ġ Tex
Ġapp ears
Ġstr ugg
Ġ Rom
Ġ 00
Ġ choice
Ġ particularly
Ġ From
o per
Ġ London
an ned
Ġ allows
ob ile
Ġd ifference
âĢ ¢
Ġ View
Ġ Wednesday
Ġ although
Ġ relative
Ġ application
at ever
Ġ aren
Ġmy self
Ġ imag
Ġd ise
Ġsoc iety
Ġf requ
Ġ English
Ġ poor
Ġ Day
Ġ writing
Ġ seven
Ġ starting
Ġb ud
Ġ print
Ġ Trans
u fact
Ġ Stud
n ew
Ġ crim
Ġg ives
Ġ cool
a e
i ance
Ġ General
Ġ thinking
Ġ save
Ġ limited
Ġ Party
Ġ meaning
p en
ow ers
Ġ Jack
E M
Ġ nice
r upt
Ġ gas
Ġ eight
Ġ feet
Ġeff ort
Ġ ign
i cit
B l
c oin
Ġo pin
Ġ brain
Wh ile
h est
Ġ Thursday
Ġwould n
augh ter
Ġ touch
l ements
Ġstud ies
Ġ center
c ont
or ge
Ġ computer
Ġinvest igation
P l
or ks
Ġ 2008
Ġ increasing
Ġ store
Ġ comments
Ġ bal
m en
Ġd oll
Ġ liber
Ġ wife
Ġ laws
atur day
it ness
Ġ modern
Ġ Sk
Ġadmin istration
Ġopportun ity
Ġ sal
Ġ powerful
M y
Ġcla ims
Ġ Earth
or ds
Ġ title
Ġ esc
n ame
N ot
o men
Ġbe yond
Ġc amer
Ġ sell
it ute
e arch
Ġap pl
i ment
4 2
Ġ Art
Ġun f
Ġ violence
u rg
Ġ East
Ġcom pared
Ġ options
Ġthrough out
Ġ vs
i gr
. [
a ches
7 8
Ġ files
F L
E L
a rian
Ġ James
Ġ Air
an ch
Ġ detail
Ġ piece
P S
Ġ named
Ġ education
Ġ drive
Ġ items
Ġ student
i ced
: :
i co
Ġ throw
Ġ scene
Ġ complex
Ġ 2009
Ġp rec
Ġ Bre
7 9
Ġ concept
Ġ status
a ming
Ġd ied
Ġ knowledge
Ġbeg inning
O D
r uary
Ġcertain ly
Ġgu ys
Ġs light
i nn
oun ds
Ġ fine
Ġ fat
ic ations
Ġ perhaps
Ġ Ant
Ġ income
Ġ https
Ġ majority
p orts
s ton
Ġgre ater
Ġ feed
ent ially
Ġ safety
Ġ unique
an dom
Ġ gone
Ġsh owed
Ġh istor
Ġ counter
i us
i da
Ġ leading
i pe
Ġ send
Ġ Donald
er ve
Ġ defense
in ese
Ġ yes
Ġ Fire
Ġ Muslim
r aq
Ġcontin ued
o sh
Ġprov ides
Ġ prison
Ġ Pre
Ġ happy
Ġec onomy
Ġ trust
a gs
Ġ Game
Ġ weapons
u man
Ġ Cle
it ation
Ġ analysis
Ġ Times
Ġ science
- >
Ġ figure
Ġdis app
en ty
Ġ software
Ġ ult
Ġoffic ers
N ew
I s
Ġrem ains
Ġ India
Ġ psych
r ief
Ġ cat
e sc
Ġob serv
Ġ stage
Ġ Dark
Ġ enter
ch ange
Ġp assed
Ġ despite
Ġ Out
Ġ movie
r s
Ġ voice
m ine
Ġ Play
Ġt oward
Ġ Ter
Ġ region
Ġ values
or ters
Ġ mount
Ġoff icer
Ġ Other
b an
Ġh ous
w ood
r oom
I V
Ġ Sun
s ee
Ġ Over
r og
9 0
Ġ lay
Ġ Tur
a wn
Ġ pressure
Ġ Sub
Ġ books
e dom
Ġ Sand
A A
a go
Ġre asons
f ord
Ġ activity
U T
N ow
Ġ Senate
c ell
n ight
Ġc alls
in ter
Ġ letter
Ġ Rob
Ġ Je
Ġcho ose
Ġ Law
G et
B e
Ġ rob
Ġ types
Ġ platform
Ġ quarter
R A
Ġ Time
Ġ maybe
Ġ Cr
9 5
p re
Ġ moving
Ġ lif
Ġ gold
Ġs om
Ġpat ients
Ġ truth
Ġ Ke
u rance
ant ly
m ar
Ġ charge
Ġ Great
Ġ cele
-------- ------------------------
Ġ rock
r oid
an cy
Ġ credit
a ud
B y
Ġ Every
Ġm oved
in ger
rib ution
Ġ names
Ġ straight
Ġ Health
Ġ Well
Ġ feature
Ġ rule
Ġ sche
in ated
Ġ Michael
b erg
4 1
i led
b and
Ġ click
Ġ Angel
on ents
Â Ń
Ġ Iraq
Ġ Saturday
Ġ aware
p art
Ġ pattern
O W
Ġ Let
Ġ grad
ig ned
Ġ associated
Ġ style
n o
i ation
a ith
i lies
Ġ stories
u ration
Ġindividual s
Ġ âĢ¦
m iss
ĠAss oci
is hing
a by
Ġs ummer
Ġ Ben
Ġ 32
Ġ arch
u ty
Ġ Texas
h ol
Ġ fully
Ġ mill
Ġfoll owed
Ġ Bill
Ġ Indian
Ġ Secret
Ġ Bel
Ġ February
Ġ jobs
Ġse emed
Ġ Govern
i pped
Ġ reality
Ġ lines
Ġ park
Ġme asure
Ġ Our
I M
Ġ brother
Ġ growing
Ġ ban
Ġe stim
Ġ cry
Ġ School
Ġme chan
Ġ OF
Ġ Windows
Ġ rates
Ġ Oh
Ġ positive
Ġ culture
is tics
i ca
Ġ har
y a
ite ly
i pp
Ġ map
en cies
Ġ William
I I
a kers
5 6
Ġ Mart
Ġ Rem
Ġ altern
it ude
Ġco ach
ro wd
D on
Ġ kids
Ġ journal
Ġc orpor
Ġ false
Ġ web
Ġ sleep
Ġcon tain
Ġs to
Ġ bed
i verse
Ġ Rich
Ġ Chinese
Ġ pun
Ġme ant
k nown
Ġ notice
Ġ favorite
a ven
Ġ condition
Ġ purpose
) )
Ġorgan ization
Ġchall eng
Ġ manufact
Ġ susp
Ġ Ac
Ġc ritic
u nes
u clear
Ġ mer
v ention
Ġ 80
Ġ mist
Ġ Us
Ġ Tor
h ttp
o lf
Ġl arger
Ġ advant
Ġres ear
Ġ actions
m l
Ġ kept
Ġ aim
, '
c ol
Ġbene fits
if ying
Ġ actual
Ġ International
Ġveh icle
Ġ chief
Ġeff orts
Ġ League
Ġ Most
Ġ wait
Ġ adult
Ġover all
Ġ speech
Ġ highly
Ġ female
Ġ error
Ġ effective
5 4
Ġen cour
w ell
Ġ failed
Ġ conserv
Ġpr ograms
Ġt rou
Ġ ahead
5 00
vertis ement
I P
Ġ Found
p ir
Ġ %
Ġ crime
a nder
Ġ location
Ġ Iran
Ġ behavior
a zing
Ġr are
Ġ emb
Ġca used
Ġ ship
Ġ active
Ġcont ribut
Ġ green
Ġ acqu
Ġ reflect
ven ue
Ġf irm
Ġ birth
] .
Ġcl early
Ġe mot
Ġ agency
r iage
Ġ memory
9 8
S A
Ġ See
a cing
C C
Ġbig gest
Ġ rap
Ġ basic
Ġ band
e at
Ġsu spect
Ġ Mac
Ġ 90
m ark
i stan
Ġ spread
a ms
k i
a sy
r av
Ġ Rober
Ġdemon str
r ated
Ġ absolute
Ġ places
Ġ impl
ib rary
Ġ cards
Ġ destroy
Ġ virt
v ere
Ġapp eared
y an
p oint
Ġb eg
Ġtem per
s pe
an ted
e ars
Ġ Direct
Ġ length
Ġ blog
a mb
Ġ integ
Ġ resources
a cc
i ful
Ġ spot
Ġ forced
Ġth ousands
ĠMin ister
Ġ qual
Ġ French
at ically
Ġgener ally
Ġdr ink
Ġ thus
I L
o des
Ġ appropri
Ġ Read
Ġw hom
Ġ eye
Ġ college
Ġ 45
i rection
Ġen sure
Ġap parent
id ers
Ġ religious
Ġmi nor
o lic
Ġ tro
Ġ Why
rib ute
m et
Ġ primary
Ġ developed
Ġ peace
Ġ skin
s te
a va
Ġ blue
Ġfam ilies
Ġ ir
Ġ apply
Ġin form
Ġ Smith
C T
i i
Ġ limit
Ġ resist
... .............
u mn
Ġconf lic
Ġt we
u dd
Ġ Tom
Ġ liter
q ue
b on
Ġ hair
Ġevent ually
Ġp us
Ġhel ped
Ġ agg
or ney
Ġ Apple
Ġ fit
Ġ Sur
Ġ prem
Ġs ales
Ġ seconds
Ġ strength
Ġfe eling
¿ ½
Ġt our
Ġkn ows
o om
Ġex erc
Ġs omew
ï ¿½
> >
Ġsp okes
Ġid eas
Ġreg ist
s oft
Ġ Del
Ġ PC
Ġpro pos
Ġ launch
Ġ bottom
T H
Ġ Please
v est
i tz
Ġ Inter
Ġ script
Ġ rat
ar ning
Ġ il
Ġ Jer
Ġ Are
Ġ whatever
o ken
c ience
Ġ mode
Ġ agree
Ġs ources
Ġ initial
Ġrest rict
Ġw onder
us ion
# ###
Ġ Sil
v ille
Ġ burn
t w
as ion
Ġ Â£
Ġ nor
u ing
Ġre ached
Ġ sun
Ġc ateg
ig ration
Ġ cook
Ġpro mot
Ġ male
Ġ climate
Ġ fix
Ġalle ged
U R
a lled
Ġ images
C ont
o ta
Ġsch ools
i os
Ġ drop
Ġ stream
Ġ Mo
Ġpre viously
a ling
Ġ pet
Ġ double
Ġ( @
an nel
Ġ default
t ies
Ġ rank
Ġ Dec
Ġ Council
Ġ weapon
Ġ stock
Ġ analy
Ġ Str
Ġ picture
Ġ Police
f erence
Ġ century
Ġ citizens
Ġ onto
Ġexp and
Ġ hero
Ġ Sol
Ġ wild
Ġ update
Ġcust omers
r ont
d ef
Ġ lik
Ġ criminal
Ġ Christian
S P
7 6
Ġle aving
Ġother wise
Ġ Dist
Ġb asis
5 2
5 3
ic ip
Ġ Ber
Ġrecomm end
Ġ floor
Ġc rowd
o les
Ġ 70
Ġ central
Ġ Ev
Ġ dream
Ġ download
Ġconf ir
Ġ Thom
Ġ window
Ġhapp ens
Ġ unit
Ġt end
Ġ spl
Ġbe comes
Ġ fighting
Ġp redict
Ġ Press
Ġ Power
Ġ heavy
a ked
Ġ fan
or ter
ate gy
B A
i zes
Ġs pend
H ere
Ġ 2007
Ġad op
Ġ Ham
Ġ football
Ġ Port
o day
5 1
amp ions
Ġ transfer
h t
Ġ 38
t erm
a city
Ġ bur
] ,
t ernal
r ig
b ut
Ġthere fore
Ġ Because
r esp
r ey
Ġ mission
S ome
Ġn oted
Ġas sum
Ġdise ase
Ġ edit
Ġ progress
r d
Ġ Brown
o cal
Ġ adding
Ġ raised
Ġ Any
Ġ tick
Ġ seeing
Ġ People
Ġag reement
Ġ server
Ġ wat
Ġdeb ate
Ġsup posed
i ling
Ġ largest
Ġ successful
Ġ Pri
Ġ Democratic
Ġ jump
Ġ Syria
Ġ owners
Ġoff ers
Ġs hooting
Ġ effic
s ey
Ġ haven
ver se
t ered
Ġ Light
i mal
Ġ Big
Ġdef end
Ġ beat
Ġrec ords
% )
Ġsc en
Ġemploy ees
Ġ devices
h em
Ġcom mer
Ġ Mex
Ġ benefit
Ġ Prof
Ġil leg
Ġ surface
Ġ Also
Ġ harm
in gly
w ide
Ġ Alex
Ġ shut
Ġ Cur
Ġl ose
p m
Ġchall enge
s emb
Ġ station
Ġ intelligence
Ġac cur
Ġ Flor
Ġ requires
Ġ Mal
b um
Ġ hospital
Ġ spirit
Ġoff ered
Ġprod uce
Ġ Commun
Ġc reating
Ġc ris
s pect
Ġ ended
Ġ daily
Ġv oters
l ands
i as
i h
o na
Ġ smart
Ġ Office
Ġ Lord
r ial
Ġ Internet
Ġcir cum
Ġ extremely
' .
Ġop inion
Ġ Mil
Ġ gain
B S
Ġ Fin
y p
Ġus eful
Ġ budget
Ġ comfort
i sf
Ġ background
e line
Ġ episode
Ġ enemy
Ġ trial
Ġ establish
d ate
Ġ Cap
Ġcontin ues
Ġsh owing
Ġ Union
w ith
Ġ posted
Ġ System
Ġ eat
r ian
Ġ rise
Ġ Germany
i ls
Ġ signed
Ġ vill
Ġ grand
m or
Ġ England
Ġ projects
u mber
Ġ conference
z a
Ġ responsible
Ġ Arab
Ġl earned
âĢĶ âĢĶ
i pping
Ġ George
O C
Ġre turned
Ġ Australia
Ġb rief
Q u
Ġ brand
i lling
a bled
Ġ highest
Ġ train
Ġ Commission
wh ile
Ġ nom
ce ption
Ġ mut
Ġ Blue
Ġinc ident
v ant
8 6
Ġ ID
Ġ nuclear
7 4
Ġ Like
Ġ RE
Ġ Micro
l i
m ail
Ġ charges
8 9
Ġ adjust
a do
Ġ earth
N A
Ġp rices
P A
Ġ draft
Ġ runs
Ġcand idate
en ses
Ġ management
Ġ Phil
Ġ Miss
Ġt each
g ram
Ġunder standing
a it
ic ago
A dd
Ġ Ep
se cut
Ġsep arate
Ġ instance
Ġ eth
Ġ unless
*** *****
Ġ Fore
in ate
Ġoper ations
S p
Ġ faith
g ar
Ġ Church
r onic
Ġ config
o sure
Ġact ivities
Ġ traditional
Ġ 36
Ġ direction
Ġ machine
Ġsur round
Ġ push
un ction
Ġ EU
Ġeas ier
Ġ argument
G B
Ġ micro
Ġsp ending
iz ations
Ġthe ory
ad ow
Ġ calling
Ġ Last
Ġ der
Ġinf luence
Ġ commit
Ġ photo
Ġ unc
is try
g n
a ste
a cks
Ġd isp
a dy
d o
Ġ Good
Ġ `
Ġw ish
Ġreve aled
Âł Âł
l ig
Ġen force
ĠComm ittee
Ġ chem
Ġm iles
Ġ interested
Ġs olution
i cy
in ct
Ġ ->
Ġ Det
Ġrem oved
Ġcom par
e ah
Ġ plant
Ġ Since
Ġa chieve
Ġad vantage
Ġs lightly
b ing
Ġ placed
u nder
2 015
Ġ Mad
Ġ tim
o ses
Ġ cru
Ġ Rock
Ġ mostly
Ġ negative
Ġ setting
Ġ produced
Ġ mur
Ġ connection
Ġ Mer
Ġ driver
Ġexec utive
Ġ assault
Ġ born
Ġ Ver
t ained
Ġst ructure
Ġred uce
Ġdec ades
Ġ ded
u ke
Ġ Many
i dden
Ġ league
S e
Ġ join
Ġd isco
Ġ die
c ks
a ctions
Ġass ess
a gn
Ġgo als
o urs
I R
Ġsen ior
i ller
m od
ip ment
o col
u y
Ġ Que
Ġpar ties
ir gin
Ġ learning
i table
Ġ street
Ġ camera
A pp
Ġsk ills
b re
c ious
Ġcele br
Ġ Franc
Ġ existing
Ġw illing
l or
Ġ id
Ġ Space
Ġ critical
Ġ La
ortun ately
Ġs erve
Ġ cold
Ġ species
T S
Ġanim als
Ġ Bay
Ġ older
Ġ Under
e stic
Ġ Tre
Ġte acher
Ġpr efer
v is
Ġ thread
Ġ Matt
Ġ manager
ãĥ »
Ġ professional
Ġ Vol
Ġ notes
Th ese
u la
Ġ fresh
en ted
u zz
e dy
cl usion
Ġ Rel
Ġd oubt
E O
Ġ opened
Ġ Bit
Ad vertisement
Ġgu ess
Ġ UN
Ġ sequ
Ġex plain
o tten
Ġatt ract
a ks
Ġ string
Ġ context
oss ible
Ġ Republicans
Ġ solid
Ġc ities
Ġ asking
Ġ random
u ps
u ries
a rant
d den
g l
Ġ Florida
Ġ depend
Ġ Scott
Ġ 33
Ġi T
i con
Ġ mentioned
Ġ 2000
Ġ claimed
Ġdef initely
u lf
Ġ core
Ġ opening
Ġ Const
wh ich
Ġ Tra
A G
7 2
Ġbel ieved
a da
Ġ 48
Ġ Security
y right
Ġ Pet
Ġ Lou
Ġ holding
==== ============
Ġ ice
Ġ brow
Ġauthor ities
h ost
w ord
Ġ score
Ġ Div
Ġ cells
Ġtrans l
Ġneigh bor
Ġ remove
u ct
Ġdist rict
Ġ According
Ġw orse
Ġconcern s
Ġpres idential
Ġpolic ies
Ġ Hall
7 3
Ġ hus
A Y
Ġ 2006
Ġ Jud
Ġ independent
Ġ Justice
il iar
p rint
igh ter
Ġ protection
z en
Ġs udden
h ouse
Ġ Jes
P R
Ġ Inf
Ġ bul
Ġ _
Ġ Service
Ġ PR
Ġstr ategy
f fect
Ġ girls
Ġ missing
oy al
Ġ Team
u lated
Ġ dat
Ġ politics
a bor
A ccording
Ġ spell
Ġ graph
ort hern
T C
A b
Ġl abor
is her
Ġ kick
ĠiT unes
Ġ steps
p oses
Ġsmall er
E n
b ert
Ġ roll
Ġres earchers
Ġ closed
Ġtrans port
Ġla wy
________ ________
Ġ Chicago
Ġa spect
Ġ none
Ġ marriage
9 6
Ġe lements
Ġ Fre
Ġ Sal
Ġd ram
F C
t op
e qu
Ġh earing
Ġ supported
Ġ testing
co hol
Ġ massive
Ġ stick
Ġ guard
is co
ph one
F rom
How ever
Ġ border
Ġ copy
ograp hy
l ist
7 1
Ġ owner
c lass
r uit
r ate
Ġ Once
Ġ digital
Ġ task
E RS
Ġinc red
t es
+ +
Ġ France
Ġb reat
o wl
Ġ issued
Ġ Western
Ġdet ect
Ġpart ners
Ġ shared
Ġ Call
Ġ cancer
a che
r ibe
Ġexpl ained
Ġ heat
{ "
Ġinvest ment
Ġ Book
Ġ wood
Ġ tools
Ġ Although
Ġbel ief
Ġc risis
Ġ ge
Ġ MP
Ġ operation
t ype
~ ~
g a
Ġcon tains
an ta
Ġ express
Ġ Group
Ġ Journal
k a
Ġ amb
Ġ USA
Ġ finding
Ġ funding
h ow
Ġ established
ide os
Ġ degree
Ġdanger ous
an ging
Ġ freedom
p port
out hern
Ġ church
Ġ catch
Ġ Two
Ġpres ence
Ġ Guard
U p
Ġauth ority
Ġ Project
Ġ button
Ġc onsequ
Ġ valid
Ġ weak
Ġst arts
Ġ reference
Ġ Mem
" )
U N
o rage
Ġ Open
Ġ collection
y m
g ency
Ġbeaut iful
r os
Ġt ells
Ġwa iting
n el
Ġprov iding
Ġ Democrats
Ġ daughter
Ġ master
Ġpur poses
Ġ Japanese
Ġ equal
Ġtur ns
Ġdoc uments
Ġ watching
R es
Ġ ran
2 014
Ġre ject
ĠK orea
Ġvict ims
Le vel
e rences
Ġw itness
Ġ 34
Ġre form
c oming
Ġ occup
Ġc aught
Ġtra ffic
a ding
Ġ models
a rio
Ġ served
Ġb atter
u ate
Ġ Secretary
Ġag reed
Ġt ruly
y nam
Ġ Ret
Ġ units
Ġ Research
h and
az ine
Ġ Mike
Ġvar iety
o tal
Ġam azing
Ġ confirmed
Ġentire ly
Ġp urchase
Ġ element
Ġ cash
Ġdeter mine
D e
Ġ cars
Ġ Wall
â ĸ
Ġ views
Ġdr ugs
Ġdep artment
Ġ Step
u it
Ġ 39
a sure
Ġ Class
Ġ covered
Ġ Bank
Ġ mere
u ana
Ġ multi
Ġ mix
Ġun like
le vision
Ġst opped
Ġ sem
Ġ Gal
u les
Ġw el
Ġ Johnson
l a
Ġ skill
Ġbe coming
r ie
Ġ appropriate
f e
el low
Ġ Prot
u late
o cation
Ġweek end
o dies
Ġ sites
Ġ animal
Ġ Tim
Ġ scale
Ġ charged
Ġin struct
i lla
Ġmeth ods
Ġ cert
Ġj udge
Ġ Hel
Ġdoll ars
Ġ standing
Ġ Squ
Ġde bt
l iam
Ġ driving
Ġ Sum
ĠEd ition
Ġ album
an don
I F
Ġ Uk
6 3
a der
Ġ commercial
e sh
Ġ Government
Ġd iscovered
Ġ output
Ġ Hillary
ĠCa rol
Ġ 2005
Ġ abuse
an cing
Ġ switch
Ġann ual
T w
Ġ stated
a gement
in ner
Ġdem ocr
Ġres idents
Ġall owing
Ġfa ctors
o dd
Ġ fuck
em ies
Ġocc urred
o ti
Ġ north
Ġ Public
Ġin jury
Ġins urance
C L
o lly
ã Ģ
Ġrepe ated
Ġ arms
an ged
Ġcon struction
Ġ fle
P U
ic ians
Ġ forms
Ġ McC
an tic
Ġ mental
p ire
Ġequ ipment
Ġf ant
Ġdis cussion
Ġreg arding
k in
ar p
Ġ chair
o gue
Ġpro ceed
Ġ Id
O ur
Ġmur der
M an
Ġ 49
a sp
Ġsup ply
Ġ input
Ġ wealth
li ament
Ġpro ced
o rial
Ġ Stat
Ġ NFL
h ens
ĠInst itute
Ġput ting
ourn ament
e tic
Ġl ocated
Ġ kid
e ria
r un
Ġpr inc
Ġ !
g oing
Ġ Bet
Ġc lot
Ġ telling
Ġpro posed
i ot
or ry
Ġfun ds
g ment
Ġ Life
Ġ baby
Ġ Back
Ġs poke
I mage
Ġe arn
Ġ AT
g u
Ġex change
Ġ Lin
o ving
Ġ pair
M ore
a zon
Ġarr ested
Ġ killing
c an
Ġ Card
y d
Ġ identified
Ġ mobile
Ġ thanks
on ym
Ġ Form
Ġh undreds
Ġ Chris
Ġ Cat
Ġt rend
h at
Ġ Av
o man
Ġ electric
Ġ Wil
S E
O f
Ġrest aur
o ted
Ġt rig
Ġ nine
Ġ bomb
W hy
Â ¯
Ġco verage
Ġapp eal
Ġ Robert
Ġ Sup
Ġ finished
Ġ flow
Ġdel iver
Ġcal cul
Ġ photos
Ġ phil
Ġ pieces
Ġap pre
k es
Ġ rough
D o
Ġpart ner
Ġcon cerned
Ġ 37
Ġ Gen
C ol
ct ors
Ġ =>
st ate
Ġsugg ested
Ġ Force
C E
Ġher self
Ġ Plan
w orks
o oth
r ency
Ġcor ner
Ġ husband
Ġ internet
Ġ Aut
e ms
o sen
Ġ Atl
g en
Ġ balance
6 2
Ġs ounds
t ext
Ġ arr
o ves
Ġm illions
Ġ radio
Ġs atisf
Ġ Dam
M r
G o
S pe
Ġ combat
r ant
ĠG ree
Ġ fuel
Ġ distance
Ġ tests
Ġde cre
Ġ Er
Ġ managed
D S
Ġt it
Ġ measures
Ġ Liber
Ġatt end
a shed
Ġ Jose
Ġ Night
d it
Ġ Nov
Ġ End
o uts
Ġ generation
Ġad voc
y th
Ġconvers ation
Ġ Sky
a ctive
c el
r ier
Ġ Frank
Ġ gender
Ġcon cent
Ġcar ried
a nda
Ġ Virgin
Ġar rived
ic ide
a ded
Ġfail ure
Ġ minimum
l ets
Ġ worst
Ġ keeping
Ġint ended
Ġ illegal
Ġsub sc
Ġd etermined
Ġ trip
Y es
Ġ raise
Ġ ~
Ġfe els
Ġ package
Ġ Jo
h i
2 016
r eal
Ġf ra
Ġsy mb
M e
uc ky
p ret
Ġ Kh
Ġ Edit
Ġ Web
e mic
Ġ Color
Ġ justice
I nt
Ġ farm
c know
" >
e less
Ġred uced
Ġ 500
x x
Ġ Rad
Ġ Wood
Ġc lin
Ġ hyp
i ler
u ra
k ins
8 5
6 1
Ġ Their
Ġ Mary
Ġ san
Ġno vel
Ġ Who
Ġ capacity
Ġimp ossible
Ġ plays
Ġmin ister
ij uana
ic ate
Ġ Set
Ġ fram
Ġ ing
Ġcommun ities
Ġ FBI
i ta
Ġ bon
Ġstr ateg
Ġinter ests
l ock
g ers
m as
Ġ AND
Ġconf lict
Ġrequ irements
Ġ sac
Ġoper ating
i ni
re lated
Ġcom mitted
Ġrel atively
Ġ south
Â¯ Â¯
Ġaf ford
Ġid entity
Ġdec isions
Ġacc used
p lace
Ġvi ctory
o ch
i at
N ame
C om
t ion
e ds
Ġ seek
Ġ tight
Ġ Images
Ġin iti
Ġ humans
Ġf amiliar
Ġaud ience
Ġ internal
v enture
Ġs ides
Ġ TO
Ġ dim
Ġcon clud
Ġap point
Ġ enforcement
Ġ Jim
ĠAss ociation
Ġcircum st
Ġ Canadian
Ġ joined
Ġdiff erences
Ġ Los
Ġpro test
Ġtw ice
w in
Ġ glass
ar sh
Ġ Army
Ġ expression
Ġdec ide
Ġplan ning
a nia
Ġ handle
Ġ Microsoft
Ġ Nor
Ġ maximum
Ġ Rev
Ġ sea
Ġ eval
Ġ helps
r ef
Ġ bound
Ġ mouth
Ġstand ards
Ġc lim
Ġ Camp
Ġ Fox
c les
Ġar my
Ġ Techn
a cking
x y
S S
Ġ 42
Ġ bug
ĠUk rain
Ġ Max
Ġ Jones
Ġ Show
l o
Ġ planet
Ġ 75
Ġ winning
Ġf aster
Ġ spect
Ġ broken
T R
Ġ defined
Ġ healthy
Ġcomp etition
htt ps
ĠIs land
Ġ Fe
Ġann ounce
ĠC up
Ġ Instead
Ġ client
Ġ possibly
s ection
oc ket
l ook
Ġfin ish
Ġ crew
Ġre serv
Ġ editor
Ġ hate
Ġ sale
Ġcont rovers
Ġ pages
w ing
Ġn umer
Ġop position
Ġ 2004
Ġref uge
Ġ flight
Ġa part
Ġ Lat
A meric
ĠAf rica
Ġappl ications
Ġ Palest
Ġ Bur
Ġ gar
Ġ Social
Ġup gr
Ġ shape
Ġ speaking
ans ion
a o
Ġ Sn
Ġw orry
Ġ Britain
P lease
r oud
Ġ hun
Ġintrodu ced
Ġd iet
I nd
Ġ Second
Ġf unctions
u ts
Ġ Each
Ġ Jeff
Ġ stress
Ġaccount s
Ġgu arant
Ġ Ann
ed ia
Ġh onest
Ġ tree
Ġ African
Ġ Bush
} ,
Ġ sch
Ġ Only
Ġ fif
i gan
Ġex ercise
Ġ Exp
Ġscient ists
Ġlegisl ation
Ġ Work
Ġ Spr
Ã Ĥ
Ġ Human
Ġ è
Ġsur vey
Ġ rich
r ip
Ġm aintain
Ġ flo
Ġlead ership
st ream
Ġ Islamic
Ġ 01
Ġ College
Ġ magic
Ġ Prime
Ġfig ures
2 017
i nder
x ual
Ġ Dead
Ġ absolutely
Ġ fourth
Ġpres ented
resp ond
r ible
Ġ alcohol
a to
Ġ DE
po rary
Ġ grab
Ġ vari
Ġ quant
Ġ Photo
Ġ plus
r ick
ar ks
Ġalter native
Ġp il
Ġapp rox
t hat
Ġ objects
Ġ Ro
Ġ Android
Ġsign ificantly
Ġ Road
k ay
R ead
a vor
Ġa cknow
Ġ HD
Ġ Sing
O r
Ġ Mont
Ġ uns
pr of
Ġneg oti
Ġ Arch
i ki
Ġte levision
Ġ Jewish
Ġ committee
Ġm otor
Ġapp earance
Ġs itting
Ġ strike
Ġ Down
c omp
Ġ Hist
Ġ fold
ac ement
Ġ Louis
Ġb elong
Ġ âĢ¢
Ġ mort
Ġpre pared
Ġ 64
Ġ Master
Ġind eed
Ġ Den
Ġ rent
T A
our ney
a rc
S u
9 7
Ġad vice
Ġ changing
Ġ listed
Ġlaun ched
is ation
Ġ Peter
is hes
Ġ lived
Ġ Mel
ĠSup reme
Ġ Federal
Ġ );
ru cture
Ġ sets
Ġphil os
u ous
Ġ Âł
Ġapp lied
Ġ NOT
Ġ housing
Ġ Mount
Ġ odd
Ġs ust
D A
ff icient
Ġ ?
ol ved
Ġ powers
Ġt hr
Ġrem aining
Ġ Water
L C
Ġca uses
ãģ ®
Ġman ner
a ds
Ġsugg ests
Ġ ends
st anding
f ig
Ġ Dun
id th
Ġ gay
Ġ termin
ĠAnge les
M S
Ġ scientific
Ġ coal
a pers
b ar
Ġ Thomas
Ġ sym
Ġ Run
t his
P C
ig rants
Ġ minute
Ġ District
cell ent
Ġle aves
Ġcom pleted
a min
Ġ focused
Ġ monitor
Ġveh icles
M A
Ġ Mass
Ġ Grand
Ġ affected
itution al
Ġ construct
Ġfoll ows
Ġ ton
re ens
Ġh omes
Ġ Ext
Ġ Level
r ast
Ġ Ir
Ġe lim
Ġlarge ly
Ġ Joe
Ġ votes
al ls
Ġbusiness es
ĠFound ation
Ġ Central
Ġ yards
Ġmater ials
ul ner
Ġ guide
Ġcl oser
u ms
Ġ sports
e der
J ust
Ġta xes
8 4
Ġ Old
Ġde cade
o la
Ġ vir
Ġdr opped
Ġ delay
it ect
Ġ secure
s tein
le vel
Ġ treated
Ġf iled
a ine
Ġ van
Ġ mir
Ġ column
ic ted
e per
Ġ rot
Ġcons ult
Ġ entry
Ġm arijuana
Ġ Dou
Ġapp arently
o king
cl usive
Ġincre ases
a no
Ġspecific ally
Ġ tele
ens ions
Ġrel igion
ab ilities
Ġ frame
Ġ Note
Ġ Lee
Ġhel ping
Ġ edge
o ston
Ġorgan izations
Ã ĥ
Ġ Both
h ips
Ġb igger
Ġ boost
Ġ Stand
Ġ row
u ls
a base
Ġ rid
L et
a ren
r ave
Ġst ret
P D
Ġ vision
Ġw earing
Ġapp reci
Ġa ward
Ġ Use
Ġ factor
w ar
u lations
) (
Ġ god
Ġter rit
Ġ param
a sts
8 7
Ġen emies
Ġ Games
F F
Ġacc ident
W ell
Ġ Martin
T ER
Ġ ath
Ġ Hell
Ġf org
Ġv eter
Ġ Medic
f ree
Ġ stars
Ġ expensive
Ġac ad
r awn
Ġ Whe
Ġ lock
Ġ format
Ġsold iers
s m
Ġ agent
Ġrespons ibility
o ra
Ġ Science
Ġra pid
Ġt ough
Ġ Jesus
Ġbel ieves
M L
Ġ wear
l ete
Ãĥ ÃĤ
Ġ Dri
Ġcom mission
Ġ Bob
O h
a ped
Ġ warm
ÃĥÃĤ ÃĥÃĤ
Ġ 2003
or tion
Ġha sn
u ster
Ġun ivers
Ġ Ill
Ġ king
olog ies
9 4
Ġ Tem
Ġ Mos
Ġ patient
Ġ Mexico
c ean
Ġ Death
Ġ Sanders
y ou
Ġ Cast
Ġ Company
p ty
Ġhapp ening
F P
Ġ Battle
Ġb ought
A m
M od
U s
u ters
Ġ Cre
Ġ Those
Ġ 44
i ser
Ġs oul
Ġ Top
Ġ Harry
Ġ Aw
Ġ seat
f fee
Ġ revolution
Ġ ("
Ġ During
et te
Ġ ring
Ġ offensive
Ġreturn s
Ġ videos
Ġdi scl
Ġ famous
en ced
Ġ Sign
Ġ River
Ġ 300
P M
Ġ Bus
Ġ CH
Ġcand idates
ar den
Ġpercent age
Ġ visual
Ġ thank
Ġtr ouble
n ergy
Ġ 2001
Ġpr ove
ash ion
Ġ enh
Ġ Long
U M
Ġ connected
Ġp ossibility
O ver
Ġex pert
Ġ library
ar ts
Ġ Director
Ġf ellow
9 2
ir ty
Ġ dry
Ġsig ns
Ġ Love
Ġ quiet
f oot
Ġ pure
Ġ Hun
Ġ filled
p has
Ġ Elect
end ment
Ġ Expl
Ġun able
n s
m o
Ġv ast
o be
Ġident ify
a pping
ĠCar olina
g ress
Ġp rote
Ġ fish
Ġcircumst ances
r azy
Ġ Phot
Ġb odies
Ġ Mur
Ġdevelop ing
Ġ AR
Ġexper ienced
Ġsub stant
Ġ Board
e some
Ġdom estic
Ġcomb ined
Ġ Put
Ġ chemical
Ġ Child
Ġ pool
Ġ Cy
Ġ egg
c ons
s ters
Ġh urt
Ġ markets
Ġ conservative
Ġsupp orters
Ġa gencies
i del
O b
u rb
Ġ 43
Ġ Defense
y e
Ġ Ap
d ule
Ġtem perature
Ġconduc ted
Ġ Chief
Ġpu lled
Ġ fol
L ast
on to
o sis
V ER
D es
Ġ Pan
F irst
Ġad vance
Ġ license
r ors
Ġ Jon
Ġim agine
Ġ hell
Ġ fixed
Ġin cor
o site
Ġ Log
ic ken
] :
Ġsur prise
h ab
Ġ craft
o lt
Ġ Jul
Ġ dial
Ġ relevant
Ġen tered
Ġle ads
Ġ AD
Ġ Clean
Ġpict ures
ess or
Ġ alt
Ġ paying
P er
Ġ Market
Ġup dates
am ily
Ġ Type
Ġ Home
Ġ 55
sem bly
r ome
8 3
Ġgreat est
Ġ height
Ġhe av
a ints
Ġli sten
a ser
Ġ SH
Ġcap able
a cle
Ġper spect
in ating
Ġoff ering
ry pt
Ġ Develop
a bin
r c
Ġ bright
al ty
ar row
Ġsup pl
in ding
ac ked
gy pt
Ġ Another
p g
Ġ Virginia
Ġ Lu
Ġ planned
Ġ pit
Ġ sweet
T ype
Ġ Di
Ġ typically
ĠFranc isco
Ġpro spect
Ġ Dan
Ġ teen
r ees
Ġs ched
Ġ hol
Ġs cr
Ġl ots
l ife
Ġnew sp
Ġf orget
Ġ None
Ġ Middle
Ġ Ryan
e dd
Ġ severe
Ġ suit
l ler
9 3
Ġcor respond
Ġexp los
u ations
Ġ flag
g ame
r id
Ġp rin
Ġ Data
Ġde ploy
Ġ Enter
s uit
g han
Ġ Men
Ġthough ts
Ġm atters
Ġ adapt
Ġ Ari
Ġ fill
Ġ forth
Ġ sam
Ġ 41
Ġ payment
Ġ Hor
Ġ spring
d uc
Ġl osing
Ġ bringing
F O
a la
Ġdist ribution
h ered
b our
Ġ Israeli
o ma
Ġcomb ination
Ġpl enty
V E
C an
Ġ Haw
Ġp erman
Ġ Special
Ġt ow
Ġ seeking
Ġex amples
Ġ classes
c r
Ġ beer
Ġm oves
Ġ IP
Ġ Kn
Ġ panel
E ven
Ġproper ly
Ġ ris
Ġ plug
Ġest imated
E very
Ġdef ensive
a graph
Ġp regn
Ġinst it
Ġ Vict
Ġ volume
Ġpos itions
Ġ links
Ġ Program
Ġ Week
ag ues
Ġ transform
k er
Ġ CEO
Ġ cas
Ġopp onent
Ġt weet
Ġ Code
Ġ shop
Ġ fly
Ġt alks
Ġ bag
Ph one
Ġ aid
Ġpl ants
Ġ 65
Ġatt orney
ar ters
qu est
Ġ Magic
Ġbe gins
Ġmy ster
Ġenvironment al
Ġ storage
N N
Ġ marg
Ġs ke
Ġ metal
e lly
Ġ ordered
Ġrem ained
Ġl oved
Ġp rompt
Ġ updated
Ġexper ts
Ġ walking
Ġan cient
Ġper formed
A TE
Ġn either
i ency
Ġmanufact ure
Ġ Pak
Ġ selected
Ġ mine
Ġult imately
Ġex plan
Ġ label
Ġ Services
rib uted
Tr ump
Ġ syn
Ġ Ult
S C
Ġ meat
Ġg iant
Ġ Wars
Ġ ON
Ġa dm
Ġ interpret
Ġev ening
Ġ evil
Ġ Boston
Ġ Wild
Ġ Ã
Ġ Bitcoin
Ġ Amazon
D r
Ġ Information
Ġob viously
Ġadv anced
Ph oto
o lar
Ġ weather
Ġsy mbol
Ġ sole
Ġpot entially
o ster
Ġorig inally
m un
3 00
a ze
ess ions
Ġ deck
Ġ stood
Ġy outh
Ġ Bern
R ep
Ġ Test
Ġbas ically
o tic
Ġinv olve
o lit
l yn
S ee
Ġa ircraft
Ġconf irm
E W
Ġmess ages
Ġ Richard
Ġ kit
Ġpro hib
Ġv ulner
i sters
Ġ existence
Ġtur ning
Ġ SP
Ġdes ire
Ġ flat
Ġ ment
se ason
an ges
Ġneighbor hood
Ġ Lake
A TION
Ġp ointed
b ur
Ġin nov
u cks
U L
Ġprof essor
Ġex pressed
A B
i cious
Ġ 2002
Ġ Dev
Ġ session
Ġ bare
s en
Ġd iss
Ġ Cath
Ġ Pass
Ġ Point
Ġ doctor
or row
a iled
Ġ Rub
Ġ DC
Ġ Charl
p erson
Ġ writer
igh ters
u reau
Ġob lig
Ġ recorded
Ġbr oke
Ġ orders
il ty
Ġ motion
in ity
l aw
ad ium
Ġ immigration
Ġcont rast
Ġb att
Ġex cellent
Ġ technical
a mi
Ġ tun
Ġ cloud
Ġ Year
g eon
Ġ creation
Ġst range
Ġ auth
Ġ fort
b orn
Ġext ent
Ġ Today
Ġ Club
Ġ rain
Ġ sample
Ġaccept ed
Ġt act
Ġ fired
Ġ Son
Ġst ands
Ġ boot
Ġ 47
Ġstat ements
Ġ versions
Ġ selling
oun ded
Ġ 1990
Ġw eren
Ġ Watch
Ġexper iment
P ost
Ġre tail
u led
In st
un te
ãĥ ¼
Ġde part
Ġb ond
i very
om pl
Ġre action
Ġ Syrian
Ġ Pac
a pped
an iel
D P
Ġ resolution
Ġ react
Ġ approved
o nom
m ond
Ġ Offic
- --
Ġ replace
Ġt ack
Ġs port
Ġ chain
Ġemer gency
r ad
ĠPalest in
Ġ 46
Ġauto matically
Ġ route
Ġ pal
Ġ banks
Ġ Paris
Ġ Media
r oad
i cing
i xt
i sted
Ġg rew
Ġ coord
Ġ Where
o min
Ġs ubs
ï¿½ ï¿½
Ġ Â±
Ġcor porate
Ġ selection
n oon
Ġ Report
c s
cl uding
ord ers
an che
Ġ Its
Ġslow ly
Ġ Egypt
Ġ Acc
Ġcol le
i ques
E X
Ġattempt s
u rl
Ġ Cross
Ġfind ings
Ġ SC
Ġ OR
Ġ index
ens ity
Ġ Way
Ġ Land
Ġ shock
d is
Ġd ynam
Ġ cart
m osp
S ince
i est
Ġ Boy
Ġ storm
Ġ Contin
2 013
h ew
i lit
Ġ essential
iq uid
O ther
i vered
Ġ reasonable
A ct
Ġsub sequ
Ġ Pack
Ġ Fort
Ġconsider ing
Ġun iversity
l og
Ġ married
Ġil lust
Ġ True
£ ı
Ġn umerous
rast ructure
Ġser iously
Ġre ferred
u a
Ġcons istent
on na
Ġ Real
ru ption
ci ples
Ġ facts
9 1
o tes
e rg
T hen
Ġac compl
N ote
Ġre venue
Ġp assing
Ġ mal
e en
Ġ Yet
Ġg ather
ter day
e work
Ġ Author
P e
Ġ optim
Ġ rub
Ġè £ı
Ġ unknown
s tone
Ġ union
ol ve
Ġopportun ities
Ġ browser
Ġ Wal
Ġ Cost
Ġ reporting
s ts
p et
Ġ sand
Ġs uddenly
Ġsur prising
Ġ VR
Ġsome what
Ġ Bas
ult ure
i zz
Ġ CD
Ġchall enges
Ġ settings
Ġexper iences
Ġ Full
Ġc ann
Ġrece iving
E ST
Ġj oint
Ġ cultural
Ġ ast
8 2
as tern
ce ived
Ġ Cru
Ġ bull
p ired
a mm
Ġ facing
p ower
Ġ boss
Ġ Hol
Ġin str
Ġincreasing ly
Ġ shift
Ġstre ets
Ġ Williams
a bb
Ġ lie
Ġ laugh
Ġ Ca
P L
Ġad ults
Ġcust omer
Ġob tained
Ġsup porting
h tml
f ire
Ġde tailed
Ġ picked
Ġ Right
l der
E E
st ood
Ġ Kim
Ġ wire
Ġ sight
Ġdevelop ers
Ġpers ons
Ġs ad
Ġ cup
Ġ warning
Ġ boys
l ong
Ġ bird
f o
Ġ wal
Ġob served
Ġ zone
iv eness
Ġ channel
c ript
Ġref used
Ġ Again
Ġs uc
Ġspokes man
Ġ Ref
r ite
ou ston
ãĥ ³
Ġ Sher
Ġ acts
Ġ Name
Ġstr uggle
ar ry
om etimes
Ġdis crim
H T
Ġ category
Ġreal ize
Ġemploy ee
ĠAf ghan
en ger
Ġ guns
Ġ Steve
Ġ Mot
Ġ Ol
o ked
Ġth ick
Ġfair ly
i lly
Ġsur ve
Ġ Mat
w eight
â Ķ
Ġtr oops
Ġ agents
Ġb attery
Ġmot iv
Ã ¡
S ec
d en
o very
L S
Ġ flu
Ġconf ident
Ġ Oper
Ġ empty
Ġ phen
Ġ sector
Ġexc ited
Ġ remote
a ph
o en
Ġdestroy ed
Ġ moral
Ġ HP
Ġ Ron
Ġ dress
Ġ Bat
Ġ lit
Ġ MS
Ġ af
H L
r um
is ms
Ġshould n
Ġsym pt
Ġ Toronto
h etic
Ġ carbon
Ġ installed
Ġ violent
Ġs olar
j a
Ġpract ices
Ġ ride
Ġ Penn
Ġimpro ved
Ġ audio
Ġbeh avi
Ġ PS
Ġ eating
D ata
Ġ Review
p ass
c laim
u ated
an gers
c hen
Ġ properties
Ġany where
An other
Ġ blow
Ġ Jackson
Ġp roud
Ġ plane
l ines
Ġ square
Ġ proof
ans as
Ġtal ked
m akers
Ġs ister
Ġh olds
Ġ resident
Ġ ==
Ġres istance
Ġ split
Ġpro secut
Ġ confidence
res ents
Ġ cuts
Ġex ception
Ġ zero
Ge tty
Ġcop yright
Ġt otally
or mal
if ications
Ġ Australian
Ġs ick
Ġ 150
Ġhouse hold
Ġf ees
Ġ drivers
o gen
Ġ NY
Ġnecess arily
Ġreg ulations
e aring
s l
Ġper spective
c are
i cial
H is
Ġ escape
Ġsurpr ised
Ġ Van
ur rent
Ġv ac
8 1
Ġ Thus
Ġem phas
ĠCh ampions
Ġ Ice
Ġn arr
Ġ heads
Ġca using
b el
f ortunately
Ġ Ma
Ġtar gets
c ipl
Ġafter noon
Ġa dds
Ġ Maybe
Ġ Four
es sed
p lete
Ġ usual
c ho
in gu
Ġwit hd
Ġ Energy
Ġ Econom
O O
Ġ articles
Ġin jured
Ġman age
Ġexpl ains
Ġ diagn
R ec
at ures
Ġ linked
Ġdisc ussed
Ġexp lo
Ġocc asion
a than
Ġopp osite
Ġ faces
Ġden ied
Ġ Knight
Ġ nut
Ġ approximately
Ġdisapp oint
onym ous
Ġ Best
Ġ Lo
Ġ Hy
Ġ Aff
Ġv oting
an while
Ġ III
Ġinstit utions
a gram
Ġ Daily
Ġd rag
Ġnear by
Ġgu ilty
Ġcon ver
P re
s hip
Ġre ward
Ġphilos oph
Ġ SS
u gh
Ġ apps
f riend
Ġ upper
Ġ advert
Ġs now
Ġf rust
Ġour selves
F r
Ġ Die
amp ion
Ġdis miss
Ġc ere
Ġsign al
f rom
Ġ ).
Ġ 52
Ġcr imes
it ors
est ival
use um
Ġcoun cil
ĠS aud
M ay
Ġ Gun
ic ian
e ther
Ġ sufficient
Ġ Hen
s ole
Ġhist orical
Ġ Far
Ġ Turn
Ġ pin
Ġsuc ceed
m at
ly mp
Ġtrad ition
Ġ Ok
Ġ cro
Ġ description
al le
Ġ sky
T e
Ġwide ly
Ġ wave
Ġ definition
Ġ Jews
Ġ cycle
Ġref ere
Ġb rings
u sal
Ġa live
Ġf requently
Ġ intention
Ġ Control
l v
y stem
Ġpriv acy
g ent
r ence
Ġ Quest
Ġ Christmas
Ġ rail
Ġco oper
Ġ tested
Ġ Capt
as ks
Ġcom fortable
Ġdel ivered
s cape
Ġ depth
Ġ GOP
Ġw rites
Ġ assets
Ġ sav
i ments
Ġtrans ition
Ġ artist
Ġ Look
Ġl ob
Ġcomp onents
a rity
Ġwal ked
Ġ root
Ġparticip ants
Ġ noticed
Ġr esc
Ġ nav
Ġ Administ
d a
ut ral
p late
Ġimport ance
Ġ assert
i ously
c ription
Ġin juries
Ġ Check
Ġ registered
Ġ intent
Ġmis sed
og raphic
Ġsent ence
oun ter
Ġass istance
e vin
Ġ database
Ġbuild ings
Ġ classic
Ġth inks
Ġ Ohio
P r
u gg
Ġ fee
p an
Ġeffect ively
Ġfac ility
Ġ bear
Ġ chapter
Ġ dogs
Ġ Columb
Ġl atter
it ial
Ġad mitted
T V
Ġ Georg
Ġ posts
\ \
Ġlaw yer
Ġequ ival
Ġ mand
Ġ controlled
Ġ Walk
Ġ Andrew
Ġ menu
a mental
Ġ protected
v a
Ġadminist r
o ral
Ġre in
ĠS ar
Ġamount s
Ġ native
Ġ Moon
Ġrep resents
Ġab andon
Ġcar rying
Ġ tank
m ary
Ġdecl ared
T ube
Ġ hat
Ġpun ish
el lect
m es
Ġun iverse
Ġ Rod
p hy
Ġinf rastructure
Ġ 51
Ġop posed
ow nt
c a
Ġ Make
Ġhard ware
Ġco ffee
R el
b al
w orld
ĠS af
Ġ Sea
in als
Ġ owned
Ġ hall
ers ion
Ġde scribe
Ġ Pot
Ġ portion
Ġat mosp
Ġgovern ments
Ġ depending
Ġoff ense
Ġt rick
a wa
Ġ Line
Ġ Vis
Ġ Hard
Ġ Orig
Ġ Click
Ġde sk
ĠVal ley
Ġ Sov
Ġm ovies
Ġr emark
Ġ mail
Ġ conscious
Ġr uling
ĠR ights
Ġmed ic
h ent
Ġ Women
> <
Ġre placed
Ġ Prem
Ġ Thanks
Ġre new
Ġ Ball
i form
Ġ shots
C omm
Ġ armed
Ġcon stant
Ġt aste
Ġreal ized
Ġ buff
Ġ mo
Ġ efficient
M ost
o ration
if ies
Ġ communication
Ġfl ood
Ġconsequ ences
Ġany way
i gg
Ġ GM
Ġ Thank
Ġ iron
Ġev olution
Ġ Cop
tw itter
Ġ 95
Ġrelation ships
a del
Ġ Young
Ġpro posal
a yers
uild ing
Ġ Hot
O RE
c os
Ġcoll abor
P G
a xy
Ġkn owing
Ġsup ports
o wed
Ġcontr ols
Ġme rely
u mer
Ġath let
Ġ fashion
p ath
Ġg ift
Ġ era
A ND
Ġkin ds
ĠK orean
Ġle git
ul ous
Ġess entially
Ġthe rap
n ic
Ġsuff ered
Ġ hur
Ġprom ise
Ġex cess
Ġove rw
Ġ prime
Ġ Houston
er ry
Ġ Ms
R S
2 012
Ġ stores
ĠO lymp
Ġj ourney
Al though
S ub
Ġ Educ
Ġ Chapter
Ġrequ ests
Ġcons umers
Ġ tiny
Ġ isol
Ġ Fair
b a
Ġ YOU
Ġcr ash
ce ler
Ġem otional
Ġgo ods
Ġ elected
Ġm oder
Ġ Linux
Ġ blocks
Ġis land
ĠSoc iety
Ġe lections
Ġbroad cast
Ġche ap
Ġn ations
Ġse asons
4 00
Ġw aste
Ġ Sat
Ġ fields
em ploy
Ġ profile
Ġ authors
A LL
Ġ Gra
w est
Ġ Ty
Ġde aths
Ġ vacc
Ġ formed
Ġ du
Ġon going
Ġ Muslims
e lf
ig ure
Ġass ume
Ġ Ukraine
w ater
Ġco ast
Ġv oted
g or
Ġ AS
Ġ Michigan
a za
Ġ Arm
i ro
Ġ flex
a sters
' '
Ġw elcome
a rl
Ġl ocations
ig ation
Ġ Fil
Ġbu ying
Ġarch itect
Ġhar der
Ġ Cub
Ġ interface
Ġrestaur ant
Ġd iscover
Ġex ceed
Ġf avour
g ery
Ġ duty
Ġp itch
a dor
Ġ Mach
b oy
Ġrespond ed
Ġext ended
h ers
M any
r aid
i fer
Ġ Ins
S er
Ġ medium
s he
Ġ Sports
Ġmag azine
ut ation
Ġ limits
Ġ Gall
Ġ external
raz il
Ġyoung er
t le
Ġre mind
Ġ CON
Ġim mediate
Ġ hidden
Ġvol unte
Ġs impl
od cast
Ġ phase
d r
Ġ plot
Ġex posure
R I
og rap
v in
an ish
ĠAc ad
Ġ Engine
Ġexp ansion
Ġ Pay
Y our
Ġp ushed
Ġ Ell
Ġ Head
Ġmark eting
Ġ AC
k et
Ġh its
Ġ gro
Ġ Age
Ġ Scot
] [
Ġ stim
Ġ iPhone
Ī Ĵ
Ġn arrow
Ġ Getty
Ġ Turkey
Ġperfect ly
Ġ enable
u tch
Ġpre cise
Ġreg ime
Ġsh if
Ġcomp ens
g un
d iv
Ġch osen
Ġ Ken
A ny
Ġt rees
Ġrecomm ended
Ġ Ren
u able
Ġ HT
F ollow
E G
Ġ Hand
Ġ Kenn
Ġarg uments
Ġex ists
Ġ bike
ĠCon serv
Ġ breaking
Ġ Gar
Ġ crazy
Ġ virtual
ay lor
ix el
Ġ 1980
Ġper mission
Ġ Series
Ġ consumer
Ġclose ly
c alled
Ġ 54
Ġh opes
Ġ array
Ġ Win
Ġ Labour
Ġ spons
Ġ Ire
Ġp ow
Ġre aders
Ġ employment
Ġcre ature
Ġresult ing
Ġacc urate
Ġmo ments
Ġarg ued
Ġ ped
D uring
Ġ 53
Ġ Tal
Ġs ought
Ġsuff ering
Ġ icon
l ee
Ġ ($
al ian
Â °
Ġp ra
Ġbon us
( "
k o
Ġ acting
D E
f all
Ġcompar ison
Ġsm ooth
Ġ NAS
u pp
Ġ Joseph
e ping
Ġ Take
Ġ Mid
Ġs ending
f ast
Ġ Fall
Ġd ealing
u ser
Ġ Organ
C o
Ġatt ached
Ġs ees
% .
Ġtyp ical
A RT
Ġfin ds
Ġ Asia
u min
Ġ Core
Ġ Ent
in ent
u ce
Ġ Blood
Ġ Never
Ġe mails
Ġhigh light
Ġcon front
at us
u ted
Ġun us
Ġ topic
Ġ Adam
Ġ ble
a ti
Ġunder stood
S et
st ruct
T P
Ġ mob
a a
Ġ Start
p ected
s ell
Ġded icated
Ġ CA
u an
Ġs ongs
e scription
Ġ tech
Ġ rape
Ġa side
Ġg rant
Ġ 56
s ub
Ġar gue
Ġ containing
Ġsche dule
Ġ liberal
Ġpublic ly
Ġheav ily
Ġ Ut
i ner
Ġ Section
Ġ Care
we et
l s
D is
âĶ Ģ
Ġ Follow
B ack
Ġ IT
Ġ bes
j i
Ġ Hit
e sted
Ġevery body
ĠS wed
Ġ femin
Ġfac ilities
Ġcon ven
C omp
Ġ OS
c ore
Ġan x
Ġ division
Ġ Cam
Ġ Stan
m ates
Ġexp lore
pl om
Ġsh ares
p load
a nes
Ġi deal
e ters
Ġ Base
Ġpl astic
Ġdist inct
Ġ Network
Ġ Seattle
Ġtr ading
ens us
int end
Ġex hib
Ġin itially
Ġ Food
Ġth ousand
Ġ Business
ac ter
Ġ paragraph
Ġrough ly
Ġ www
Ġcre ative
Ġ Conf
Ġcons umption
Ġfil ms
a gan
Ġob tain
Ġ tall
Ġ tor
Ġa cknowled
Ġ grown
a lo
K E
Ġ 400
end ers
t aining
U G
Ġsu icide
Ġw atched
Ġ List
a li
re hens
Ġsurround ing
Ġp ip
Ġ flying
Ġ Java
or dan
Ġ serving
in ations
p ost
Ġs ho
A v
Ġj ail
z y
Ġ 1999
Ġ </
Ġ literally
Ġ Sir
Ġex posed
Ġ lies
s tar
Ġ bat
Ġ earned
Ġ Dig
Ġ specified
Ġ Season
Ġdeg rees
Don ald
Ġcent re
Ġ sharing
Ġ winter
Ġ CO
C he
Ġ Î
M P
Ġu nw
Ġfe wer
Ġ Mir
Ġsome where
Ġ Key
Ġatt acked
ĠK ir
Ġ domain
Ġstrong er
Ġ 99
Ġpen alty
I d
S cript
Ġdec lined
Ġ neck
Ġf raud
Ġ currency
Ġ rising
R C
âĢ¦ âĢ¦
H z
Ġ tab
Ġtal ent
n am
Ġ NBA
Ġvill age
Ġle gs
Ġ Next
E d
Ġ acid
Ġ hyd
8 00
Ġinv olving
Ġ Image
Ġ Before
F l
Ġyes terday
S ource
Ġ terrorist
Ġ sup
Ġs ynt
Ġ Saudi
Ġ west
Ġ ru
b urg
Ġ visible
Ġst ruck
r ison
Ġaw esome
Ġ drawn
Ġan swers
Ġ Girl
Ġ Ram
Ġthreat s
Ġde feat
o sit
Ġ vent
at urally
Americ an
e nda
Ġ Holy
Ġ rum
% ,
c ase
Ġ History
Ġ YouTube
Ġsit uations
Ġ DNA
S te
Ġs aved
I tem
Ġrec ip
olog ist
Ġ faced
Ġe lig
O nce
Ġ Li
u h
Ġmis take
ĠDi vision
Ġ Bell
Ġsym ptoms
Â ®
Ġd omin
Ġf alling
Ġ ending
as hes
Ġm atches
Ġ Online
Ġexplan ation
D ef
r edit
Ġany more
Ġ Total
Ġ FOR
u shed
Ġ letters
Ġr isks
Ġ OK
Ġreport edly
: \
Ġ plate
Ġsubject s
Ġattempt ed
if ier
i ana
Ġun likely
Ġ Though
u ma
Ġ Invest
Ġ Prin
i can
Ġ Dar
Ġ Colorado
a ug
Ġve get
a os
r ia
Ġs hel
Ġ marked
Ġ ()
Ġ spr
p o
Ġ Link
Ġd efe
Ġ Jr
Ġ theme
Ġp assion
Ġ Pen
Ġ info
i zer
Ġ shit
Ġ Civil
a pse
c re
Ġ poly
Ġ component
Ġ Charles
Ġ Ireland
Ġ Prov
Ġdo ctors
Ġgr anted
Ġp aint
Ġho nor
Ġsm oke
Ġpay ments
Ġprim arily
ĠKing dom
r ich
a tell
Ġ deals
Ġsched uled
Ġfund amental
Ġ protein
Ġnews paper
Ġcl ients
yt hon
Ġ Date
h us
Ġfeed back
Ġst retch
Ġ cock
Ġho tel
Ġ Queen
Ġs ugar
Ġ ju
Ġm ilk
Ġappro val
Ġ Live
Ġequ ivalent
e fully
Ġ insert
z ona
Ġext ension
d ri
J ohn
Ġac comp
S m
Ġ Fund
Ġconst antly
Ġ ``
Ġ generated
Ġ Action
Ġ Psych
Ġ Tri
Ġrecogn ize
Ġv ary
p ha
Ġ Ra
d f
e tch
Ġ Soviet
T wo
Ġpattern s
Ġprof ession
a ning
T ime
Ġ Lim
Ġcol ors
Ġ Az
Ġ TR
Ġ infect
Ġphen omen
Ġ shell
Al so
Ġp uts
Ġdel ivery
Ġ brown
Ġ processing
Ġ lights
ess age
Ġ Brook
Ġ Aud
l ation
Ġ industrial
L ike
Ġ Brazil
r ous
E SS
Ġ Luc
Ġsome how
Ġ 85
Ġpro port
Ġpolit icians
Ġind icate
Ġ hole
Ġtechn iques
Ġ competitive
Ġp hr
Ġ vo
ist ent
Ġ Dream
Ġ campus
Ġas pects
Ġhelp ful
Ġ shield
or se
Ġ trigger
m al
Ġ 58
Ġt ort
Ġperson ally
Ġ tag
Ġke eps
Ġ Video
Ġ bench
Ġ gap
a ire
Ġ east
Ġrec overy
p erial
Ġ profit
Ġ Mic
Ġ 57
Ġc olon
Ġstrong ly
st yle
Ġalleg ations
h an
Ġrep orters
j o
r ine
ar get
an dal
Ġ 03
Ġ flash
t rans
Ġst rict
Ġpar king
Ġ Pakistan
Ġ li
Ġwe ird
Ġ Eric
Ġreg ions
Ġ Jun
Ġint ellect
Ġ WH
o ding
rib utes
u pid
ĠT it
Ġ finger
o ria
Ġe lev
Ġ Field
Ġcon clusion
; ;
Ġfee lings
Ġext ensive
Ġm ixed
Ġn euro
v y
Ġhar ass
Ġ Circ
o uch
Ġterr itory
Ġ successfully
M ar
Ġing red
Ġover whel
Ġ layer
V iew
Ġal lies
il lance
Ġ Three
Ġb unch
Ġnorm ally
Ġnet works
Ġsa cr
Ġ CIA
b les
Ġch ose
Ġopp onents
Ġreg ardless
Ġf ranch
Ġp ref
Ġ Po
Ġ bridge
an na
Ġ Silver
Ġ wage
p age
r ior
Ġ radical
Ġ Little
Ġman ip
Ġsecret ary
Ġ gang
D R
F A
Ġde cent
Ġ Spirit
Ġ uncle
Ġ Development
Ġinvest ors
Ġw alls
Ġpub lish
Ġgen erate
iss ions
c ar
Ġprom ote
Ġ cutting
Ġ chest
Ġdr inking
Ġcol lected
Ġ 72
Ġh oping
Ġem br
gor ith
Ġwar ned
Ġinstr uctions
O G
Ġ Did
ĠA gency
Ġ gear
Ġcrit icism
Ġ Further
Ġ util
an ny
R ed
Ġcoun sel
Ġ Asian
Ġre duction
p ool
Ġte aching
Ġdeep ly
i y
Ġest imates
Ġcho ices
Ġp ermanent
in em
k el
Ġf asc
p se
f ile
Ġ Low
Ġ Person
Ġt ournament
s tal
Ġ mel
U ST
Ġ Ray
a zi
V al
Ġ contained
ĠH olly
Ġ wake
Ġrev eal
Ġproc esses
Ġ ISIS
Ġ 09
Ġ blind
Ġ steel
Ġ Bad
Ġcar efully
a ppy
r oit
Ġ gaming
Ġ houses
Ġ Coll
Ġt ruck
e rm
Ġsc ored
Ġocc as
re turn
b ound
v ar
Ġ sharp
Ġaf raid
Ġ EX
a mber
c ific
Ġsch eme
N C
Ġ Polit
Ġdec line
Ġ 1998
Ġp ushing
Ġp ossession
Ġpriv ile
Ġte achers
Ġy ield
H A
Ġ Davis
it led
#### ####
Ġ rig
Ġ Daniel
a con
Ġ hide
u ten
Ġcolle agues
Ġprin ciples
Ġl oud
Ġ sin
Ġ Demon
Ġ stone
Ġ 02
Ġt aught
Ġter rible
Ġst uck
Ġ Policy
t een
Ġim plementation
Ġ BBC
Ġ API
Ġ wheel
al las
Ġch ampions
ol ars
p layer
Ġrepeat edly
Ġ Still
Ġl ikes
a sty
e ster
Ġ Catholic
R L
Ġ bath
Ġn oise
t itle
Ġn orthern
P art
Ġm agn
Ġ fab
Ġ Ash
Ġdi spl
Ġ ticket
Ġm urd
Ġalong side
Ġ Music
Ġ river
Ġ Steel
Ġ CL
Ġ Player
Ġ Mult
o wing
r ep
s ize
Ġ tur
Ġ Georgia
is cal
r action
Ġc able
Ġ 59
Ġw ins
Ġup coming
Ġsurv ive
Ġ inspired
Ġ Education
Ġstat istics
Ġ Foot
i ami
Ġ yellow
Ġ Page
. -
Ġ Has
Ġ urban
Ġ ax
es sel
\ "
Ġquarter back
Ġ register
Ġ Labor
Ġ abilities
Ġ Family
Ġ variable
Ġ Price
Ġcon tem
Ġ thin
Ġ Equ
d ata
Ġ gotten
Ġconst it
Ġ asks
Ġ tail
Ġexc iting
Ġ Effect
Ġ Spanish
Ġenc ourage
in son
Ġ Ah
Ġcommit ment
C S
Ġr ally
Ġ ::
Ġsub sid
Ġ spin
Ġcapt ured
2 018
Ġinn oc
Ġalleg edly
Ġ Come
Ġart ists
Ġ Number
Ġelect ronic
Ġreg ional
a pes
Ġ wra
Ġm yth
p rise
Ġ Miller
Ġ Creat
Ġ Episode
b ell
Ġ directed
Ġext ract
Ġ sorry
Ġ vice
a gger
Ġ Support
Ġ 66
Ġ Iron
Ġwonder ful
Ġ gra
N et
i one
E ng
Ġ ships
i kes
Ġ Kevin
i tar
Ġactiv ists
t rue
Ġ Arizona
en th
Ġ Despite
Ġ SE
Ġh abit
er nel
Ġ inqu
Ġ abortion
Ġ void
Ġexpl icit
Ġeng aged
Ġang ry
Ġ rating
Ġf rag
b ro
i cking
d ev
Ġwor ried
Ġob ser
Ġap artment
Ġ GT
Ġ estate
ĠConst itution
e mon
Ġ Snow
Ġc ounty
Ġdis ag
Ġ Stephen
Ġimm igrants
w ind
ĠN ations
Ġfol ks
O ut
Ġ gall
Ġtarget ed
Ġ stead
Ġ Bon
Ġ Lib
Ġ informed
Ġ 120
ch ain
id elines
o rough
Ġ driven
Ġregular ly
Ġb asket
Ġprinc iple
oc ument
Ġs tun
ib ilities
Ġ Roman
Ġ About
Ġ alert
Ġ democracy
Ġ represented
H S
c ers
p arent
A rt
p ack
Ġdi plom
r ets
Ġ NO
Ġcapt ure
Ġ Adv
Ħ ¢
Ġannounce ment
Ġ Lear
Ġ hook
Ġp urs
Ġ Such
ĠC amer
Ġrefuge es
Ġ Ve
P ol
Ġrecogn ized
l ib
Ġha dn
A ss
Ġp ilot
us hing
Ġreturn ing
Ġt rail
Ġ Stone
Ġr outine
Ġcour ts
Ġdes per
Ġ friendly
Ġ Italy
Ġ pled
Ġb reath
Ġstud io
N S
Ġimp ressive
ĠAfghan istan
Ġ fing
Ġd ownt
in king
Ġ Rog
i ary
c olor
s ex
a ron
Ġf ault
Ġ Nick
D own
Ġ Rose
Ġ Southern
X X
is odes
L ist
6 00
Ġout come
e rr
Ġelse where
Ġret ire
Ġp ounds
Ġ Global
Pe ople
Ġ communications
Ġl oan
Ġr atio
ĠE mpire
Ġg onna
Ġin vent
D F
Ġ 1970
Ġ Common
p at
Ġprom ised
Ġd inner
Ġ Hom
Ġcre ates
Ġo perate
ver ty
Ġ Jordan
e time
Ġs ustain
R eg
Ġinc redible
i ma
Ġwar rant
Ġ mm
A tt
Ġlaw suit
Ġre views
it ure
Ġ Source
l ights
Ġ Ford
Ġ 63
g roup
st ore
Ġf eatured
Ġfor ever
Ġp overty
Ġ Pop
Ġ CNN
a zz
a bis
a ching
Ġl aid
Ġ Supp
Ġ filter
e na
Ġ Community
Ġcr eatures
u ction
Ġ Royal
Ġass ociation
Ġ Connect
Ġ Brad
âĸ Ī
l ers
t here
Ġ Gi
Ġval uable
AC K
Ġ Taylor
Ġ liquid
Ġ Attorney
Ġ Carl
Ġ Final
a ga
Ġ Wilson
B ecause
Ġ Professor
a ka
Ġinc redibly
r ance
! )
R ef
s k
Ġs olutions
Ġatmosp here
Ġbl ame
u mes
Ġ Nob
C A
um ps
r ical
Ġ Putin
Ġ Dest
o ric
Ġ PA
Ġrespect ively
w an
Ġ fifth
â Ħ¢
Ġ Cry
Ġgovern or
res ident
Ġpurch ased
Ġ hack
Ġint ense
o bs
Ġ origin
Ġ define
Ġcar eful
* **
Ġsh oulder
Cl ick
Ġt ied
Ġde struction
o ured
Ġno body
Ġ ho
Ġ Exper
Ġ tip
" ;
Ġtechn ique
Ġj ur
ĠP ok
b ow
Ġleg end
Ġacc ord
Ġbu sy
Ġ Intel
Ġ hang
a ki
. ]
âĢĶâĢĶ âĢĶâĢĶ
Ġsur gery
Ġre produ
Ġun iform
Ġ scenes
c ode
Ġ 62
l isher
Ġ Have
ph ia
Ġ crypt
Ġre con
Ġs cream
Ġad opted
Ġsc ores
N e
Ġ Italian
in cluding
B O
Ġind icated
Ġent ertain
G u
T ext
i el
Ġtw enty
Ġen gage
of fs
Ġ Pacific
Ġs mile
Ġperson nel
Ġt oler
Ġ doors
Ġ tone
Ġmach ines
Ġen tering
t enance
C O
ĠJer sey
Ġ forest
Ġ horse
Ġcompl aint
Ġ Spring
y o
Ġ Plus
e ding
Ġ Return
qu arters
i als
c ow
Ġac ademic
Ġ fruit
Ġ 1996
og ether
Ġ wine
Ġpur su
Ġ Steven
Ġli cens
W ho
Ġcl othes
r ection
Ġs quad
Ġ stable
Ġ raw
z ens
S tar
u ties
an cer
Ġ keys
Ġ Mu
Ġcompl icated
i ger
Ġ Text
Ġ absor
Ġ 68
Ġf unny
Ġrel ief
Ġ Lew
Ġ Cook
Ġ chart
Ġdra wing
G E
Ġ module
Ġ Bull
I LL
Ġs alt
0 0000000
il le
Ġ resource
a way
adel phia
ĠB ru
Ġ 67
Ġsome body
Ġparticip ate
Ġ rose
w ered
Ġmus cle
Ġcon sent
Ġcontin uing
ĠGuard ian
Ġ Order
re gon
Ġr ear
Ġpro vision
Ġl iked
r ient
Ġ bra
T rans
Ġmeet ings
Ġt ox
Ġcon vent
Ġ auto
Ġrec ording
Ġ Soft
0 01
Ġ Roll
Ġprogram ming
Ġ pic
Ġpr oved
Ġ stab
Ġ Ast
Ġca ption
ul ating
Ġ Attack
Ġnew ly
Ġ 1997
f r
Ġdis cipl
Ġ Greek
Ġ edition
Ġ Does
Ġ Box
i fle
ac ket
Ġp asses
Ġgu est
Ġac celer
it als
U D
Ġ authent
Ġ Rest
o val
t a
u ine
Ġ armor
Ġ Town
Ġcom pat
Ġ inches
Des pite
Ġas sign
h erent
Ġprep are
Ġ Meg
oc key
Ġdep ends
Ġ tracks
w atch
Ġ lists
Ġ Northern
Ġ alter
r ec
Ġ Eastern
Ġcon dem
Ġevery where
? '
Ġaff ili
Ġf ought
": {"
Ġ mac
i tarian
Ġ scope
Ġ AL
a ws
ar ms
Ġ que
Ġenjoy ed
nes ota
Ġ aggressive
Ġ Story
Ġ IV
Ġrec ipe
Ġra rely
Ġ Medical
val ue
an gel
a ying
ome thing
Ġsub section
Ġs outhern
Ġ frequency
r ete
ro lled
ul ts
Ġ Nic
Ġbe half
Ġ sequence
a bet
Ġcont roversial
Ġcom prom
Ġ worker
Ġmain ly
Ġal gorith
Ġ Major
or ce
g ender
Ġ organized
Ġ fake
Ġcon cluded
Ġ ED
Ġ Exec
r age
Ġch ances
b erry
ĠT rad
Ġconfig uration
Ġwith draw
Ġf ro
u des
Ġ Brother
Ġ Brian
Ġt ries
Ġs amples
Ġ bid
Ġ Golden
Ġphot ograph
i fest
Ġ DO
ĠPar liament
**** ************
R em
Ġcon test
Ġs igning
p x
ĠZ eal
âĶĢ âĶĢ
E ar
Ġ exit
Be fore
ĠC orpor
n ull
mon th
Ġ racial
o tted
ĠV eg
Ġ Reuters
Ġ sword
p son
Ġ Romney
a ed
Ġt rib
Ġ inner
Ġprot ocol
Ġ Bi
Ġ Miami
ev eral
p ress
Ġsh ipping
ĠAm endment
Ġ Howard
con nect
Ġ Disc
Ġ Jac
ia mond
Ġ Therefore
s es
ĠPrin cess
Ġ USB
Ġ Anth
Ġsurve illance
Ġ apolog
Ġ 61
o wa
Ġf ulf
j s
Ġ luck
u sted
Ġ Â§
n i
Ġant icip
e man
Ġ winner
Ġ silver
l la
i city
Ġun usual
Ġc rack
Ġ ties
e z
Ġp ractical
Ġprov ince
Ġ Place
Ġ priority
I CE
Ġdesc ribes
Ġb ranch
F orm
as ka
m issions
b i
Ġp orn
ĠTur k
Ġen thus
Ġ fighters
Ġ 08
Ġ Detroit
Ġ foundation
a vid
A re
Ġjud gment
c ling
Ġs olve
Ġ Design
W here
h esis
Ġ Tro
a fter
Ġ neutral
Ġ Palestinian
ĠH ollywood
Ġad vis
Ġ Non
y es
o lis
Ġrep utation
Ġsm ell
Ġ bread
Ġ Bul
ĠB each
Ġclaim ing
Ġge netic
Ġtechn ologies
Ġup grade
r ows
Ġdevelop er
Ġ Josh
Ġ Disney
er ved
i pal
Ġu nex
Ġba rely
t hen
Ġ Pub
Ġill ness
et ary
Ġ Bal
Ġ patch
Ġ butt
Ġst upid
Ġ Dog
Ġ Dallas
f ront
ie ce
Ġpro tests
Ġ chat
oen ix
Ġ wing
Ġpar liament
Ġ 77
o sexual
Ġ render
p tions
ĠCo ast
o sa
Ġ Greg
h op
Ġ Management
Ġ bitcoin
Ġre cover
Ġinc orpor
or ne
Ġ Using
Ġpre ced
Ġthreat ened
Ġspir itual
Ġ Event
Ġ Fred
Ġ advertising
Ġimprov ements
Ġ Custom
Ġ errors
Ġ sensitive
ĠN avy
Ġ cream
L ook
Ġ exclusive
Ġcomp rehens
Ġde leg
Ġc once
Ġre mem
Ġstruct ures
Ġst ored
N D
Ġ 1000
U P
ĠB udd
A F
w oman
ĠAcad emy
ð Ł
s ea
Ġt emporary
Ab out
e sters
Ġt ickets
Ġposs ess
in ch
o z
Ġ la
Ġcontr acts
Ġu np
Ġ cig
Ġ Kat
ult ural
a sm
Ġm ountain
Ġ Captain
St ep
m aking
Ġ Spain
Ġeq ually
Ġ lands
a ters
Ġre jected
e ra
i mm
r ix
C D
Ġtrans action
g ener
less ly
Ġ ||
Ġ cos
Ġ Henry
Ġprov isions
Ġg ained
Ġ directory
Ġ raising
Ġ Sep
o len
o nder
Ġ console
in st
Ġb om
Ġun certain
1 50
o cking
Ġme asured
Ġ plain
Ġse ats
Ġ dict
S L
a fe
Ġest imate
i zon
at hered
Ġcont ributed
Ġep isodes
om mod
G r
A NT
Ġ 69
G ener
Ġ 250
v iously
r ogen
Ġ terrorism
Ġmov ements
en tle
ou nce
Ġ Soul
Ġ prev
Ġ Table
ac ts
r iors
t ab
Ġs uffer
Ġn erv
Ġmain stream
Ġ Wolf
Ġfranch ise
b at
Ġdem ands
Ġag enda
Ġ dozen
Ġ clinical
iz ard
Ġ Op
t d
Ġvis ited
Ġ Perhaps
Ġ actor
Ġde lic
Ġcont ribute
Ġin ject
Ġ Es
ac co
Ġlist ening
Ġcon gress
epend ent
Ġprem ium
Ġ 76
Ġ Irish
Ġas signed
Ġ Phys
Ġworld wide
Ġnar rative
o type
m ont
b ase
ĠB owl
ĠAdmin istration
Ġ relation
Ġ EV
C P
Ġc overs
Ġ 78
Ġcert ific
Ġ grass
Ġ 04
pir acy
i ra
Ġ engineering
Ġ Mars
Ġun employ
Ġ Foreign
st ract
Ġ ven
Ġst eal
Ġrep lied
Ġ ultimate
Ġt itles
d ated
Ġ joy
a us
Ġ hyper
a ku
Ġoffic ially
Ġ Product
Ġdiff iculty
pe ror
Ġresult ed
ri bed
l ink
w ho
~~ ~~
Ġ Speed
ĠV iet
W ind
ĠBa rack
Ġrestrict ions
Ġ Share
Ġ 1995
ition ally
Ġbeaut y
o pt
Ġ maps
Ġ CR
Ġ Nation
Ġ Cruz
W ill
Ġelectr icity
Ġ org
Ġb urd
Ġvi olation
Ġ usage
Ġper mit
ĠCh ron
ĠF ant
Ġn aturally
Ġ 07
Ġth rown
ĠAw oken
Ġ alien
Ġ Hero
Ġ Kent
Ġ Rick
r ike
Ġ pace
}, {"
G L
Ġpo ison
ĠT ower
Ġf ormal
al ysis
Ġgen uine
Ġ kil
a ver
Ġproced ure
Ġ Prop
int endo
Ġ Main
as ant
Ġ trained
G ame
Ġ Load
Ġ MA
Ġcru cial
Ġ lets
Ġ FR
Ġch ampion
1 01
ĠCon ference
Ġ writers
Ġconnect ions
Ġo kay
ir ms
Ġ Rand
Ġen counter
Ġ Buff
Ġachie ved
Ġ checks
is cons
Ġass istant
Ġwhe never
Ġ Access
Ġ Ur
b in
Ġ clock
i sp
o pher
Ġb orrow
Ġ mad
Ġperson ality
on ly
I ST
ab ama
Ġg ains
Ġcomm only
Ġt err
Ġhy pot
Ġ rely
Ġt iss
iscons in
Ġrid ic
f unction
Ġ Oregon
Ġun com
r ating
e land
Ġ NC
Ġ moon
an non
Ġv ulnerable
ut ive
Âł ÂłÂłÂł
Ġ Radio
Ġ western
s ect
Ġ Tony
Ġocc urs
Ġ Os
Ġ Hon
Ã Ń
Ġv essel
Ġ Scotland
Ġ discrimination
Ġsub sequent
st ring
Ġf antasy
Ġ Shadow
Ġte stim
W E
i ti
r as
Ġ boat
Ġ marks
Ġ ordinary
Ġ ren
Ġrepresent ative
Ġp etition
Ġ 73
Ġad venture
Ġ ignore
Ġ Philadelphia
Ġ Sav
V P
Ġf actory
Ġt asks
Ġdep ression
z ed
........ ........................
Ġ Storm
Ġc ogn
Ġ eligible
Ġred ucing
v ia
Ġ 05
Ġstr iking
Ġ dollar
h o
O V
Ġin strument
Ġphilos ophy
Ġ Moore
ĠA venue
Ġr uled
Ġ Front
I NE
Ġ Mah
Ġsc enario
Ġ NASA
Ġe norm
Ġde but
Ġt ea
T oday
Ġabs ence
S im
Ġ ham
le ep
Ġt ables
Ġ Heart
M I
K e
r equ
V D
m ap
Ġchair man
Ġp ump
Ġrapid ly
v i
Ġsub stantial
E P
d es
ch ant
il ipp
Ġ Santa
r iers
an chester
L oad
Ġ Case
Ġ saving
Ġ 74
Ġ AFP
er ning
oun ced
Ġ Minnesota
Ġ Was
Ġre cru
Ġass essment
Ġ Bron
U E
Ġd ynamic
Ġf urn
u lator
Ġprop ag
h igh
Ġacc ommod
Ġ stack
Ġ Sus
w rit
Ġr even
ĠG odd
ĠZeal and
a bs
Ġbr ut
Ġper pet
h ot
Ġhard ly
Ġ Burn
ãĤ ¹
Ġ sty
Ġtrans actions
Ġ gate
Ġsc reens
Ġsub mitted
Ġ 101
Ġl anguages
ug ht
e men
Ġ falls
Ġc oc
Ĥ ¬
Ġst rikes
p a
Ġde liber
Ġ IM
Ġrel ax
an nels
Ġ Senator
Ġext rem
Ġ },
Ġ Deb
Ġ bell
Ġdis order
c ut
Ġ iOS
Ġ locked
Ġe missions
Ġshort ly
" ]
Ġ Judge
Ġ Sometimes
Ġ rival
Ġ dust
Ġ reaching
F ile
Â¯Â¯ Â¯Â¯
in ois
Ġ Jason
Ġs atell
a ret
Ġst ations
Ġag ric
Ġ Technology
c omes
Ġ Unfortunately
Ġ Children
Ġapp lies
a sted
Ġ anger
ail ability
Ġ Damage
Ġcomp are
Ġ Standard
Ġaim ed
Ġ Ba
angu age
Ġ regulation
Ġ jury
Ġair port
Ġ sections
Ġ Prince
e med
Ġmedic ine
Ġ hitting
Ġs park
o lves
Ġ ads
St ate
Ġfo ods
Ġrepl acement
Ġch icken
Ġlo west
Ġmin ds
Ġinv olves
u i
Ġar rang
Ġproced ures
Ġ Which
ivers ary
Ġb ills
Ġimprov ement
Ġin ev
Ġexpect ations
Ġint ellectual
Ġs paces
Ġmech anism
2 50
bre ak
Ġ Ze
Ġ Tenn
Ġ Balt
Ġbar rel
Ġ static
m ann
Pol ice
Ġ tips
Ġhand ling
c us
o ded
il ton
i ry
Ġjournal ists
o urse
Ġc omic
Ġno mine
I TY
Ġvers us
Ġ loop
Ġsu rf
Ġ Indust
Ġ Hunter
Ġbelie fs
i san
Ġ setup
Ġ brew
i mage
Ġcom puters
f ol
} ,"
ĠMe dal
Ġta xp
Ġdis played
Ġg rav
Ġf iscal
M on
Ġ Moscow
ĠK ong
ĠCent re
Ġcame ras
Ġ Mrs
Ġ Hay
Ġ aver
Ġ Kelly
p y
Ġrequ irement
Ġent itled
om bie
Ġ shadow
ag ic
Ġ Ak
Ġe lite
Ġdiv ided
Ġ heading
Ġcop ies
Ġlos ses
Ġv it
k ed
ĠB ry
Ġ ans
Ġ Steam
Ġre porter
he im
Ġ Item
Ġsuper ior
d on
e rent
Ã ¶
Ġther apy
Ġ peak
Ġ Model
Ġ lying
Ġ gam
z er
r itten
Ġrespons es
Ġconsider ation
ĠB ible
Ġl oyal
Ġin stant
Ġ pm
Ġ Forest
Ã ¼
Ġext end
Ġconv icted
Ġ founder
Ġcon vin
Ġ Oak
che ck
Ġsch olars
p ed
Ġo verse
T op
c ount
Ġ Ark
Â ·
Ġ 06
Ġ LA
m d
Ġ Latin
i mental
Ġ CPU
Ġsubst ance
Ġmin ority
Ġmanufact uring
E r
oc olate
Ġatt ended
Ġ Manager
r ations
Ġappreci ate
o my
G BT
id ency
B L
Ġguarant ee
p osition
Ġo cean
c lude
Ġ headed
Ġt ape
Ġlo ose
Ġlog ic
Ġ proven
Ġ spir
Ġad mit
i sa
Ġinvest igate
Ġ 1994
sy lv
Ġ Lost
c est
Ġ 71
Ġrequ ested
Ġ windows
Ġ PokÃ©
Ġ Without
M et
Ġbeh aviour
Ġ reader
Ġ hung
Ġ Keep
Ġr oles
Ġimplement ed
Ġ blank
Ġs erves
Ġ Jay
Ġc ited
Ġ Friend
pro fit
ap on
Ġ repair
i tem
arr ass
Ġcrit ics
a di
Ġ Father
Ġsh out
Ġf ool
Ġ 88
Ġ producing
Ġ lib
Ġr ounds
Ġ circle
Ġpre par
Ġ submit
Ġ nic
m orrow
ãĥ «
U nder
Ġv ital
a tern
Ġ password
Ġpub lication
Ġpro minent
Ġspe aks
Ġ bars
Ġd eeper
Ġ Mill
p orted
Ġ wid
Ġb utter
Ġ smoking
Ġind icates
K ey
ro pri
Ġ File
a lling
as ting
Ġ Rus
Ġ adj
Ġ 79
a val
Ġpre sum
bur gh
o nic
Ġ fur
Ġp olls
i ka
Ġ secondary
Ġ monster
i gs
Ġ Current
E vent
Ġown ership
en dar
Ġar rive
Ġ Tax
Ġ null
Ġ Priv
Ġ thro
Ġ kiss
c at
Ġup set
ang le
it ches
e ctor
olog ists
ĠGal axy
Ġ corruption
Ġh int
en ter
ĠH ospital
Ġgreat ly
Ġbe gun
e sy
Ġs oil
ĠA nton
Ġmain tenance
ãĥ ©
Ġdo zens
Ġhum anity
Ġ Alabama
Ġ rom
w orth
a ping
sylv ania
l ah
Ġg athered
G A
Ġatt acking
f ound
Ġ Square
Ġar bit
i ctions
Ġ Wisconsin
Ġd ance
Ġ Saint
ar chy
Ġbase ball
Ġcontribut ions
Ġliter ature
Ġex ha
per ty
t est
Ġb ab
Ġ container
l etter
Ġfal len
Ġweb sites
Ġbo ttle
Ġ Sac
Ġbr east
Ġ PL
Ġveter an
Ġinter views
Ġ Ale
Ġb anned
en gers
Ġ Revolution
in th
Ġcon cerning
I VE
Ġexp enses
Ġ Matthew
ĠColumb ia
d s
ist ance
Ġ entity
.. ."
Ġrel iable
Ġ paralle
ĠChrist ians
Ġopin ions
Ġ indu
l ow
Ġcomp ete
Ġth orough
Ġ employed
Ġ establishment
i gen
Ġ Cro
Ġlaw yers
Ġ Station
T E
Ġ Lind
Ġ Pur
it ary
Ġ efficiency
âĢ Ĳ
Ġ Ly
Ġ mask
Ġdis aster
Ġ ages
E RE
e sis
Ġ Hold
Ġcas ual
b led
Ġ enabled
Ġ Environment
ĠInt elligence
i per
Ġ Map
Ġ BE
Ġemer ged
is dom
Ġc abin
Ġreg istration
Ġf ingers
Ġr oster
Ġ framework
Ġ Doctor
et ts
Ġtrans portation
Ġ awareness
H er
Ġattempt ing
O ff
Ġ Store
ÃĥÃĤÃĥÃĤ ÃĥÃĤÃĥÃĤ
Ġ Know
Ġdef ence
Ġ scan
Ġ Ten
Ġ Chair
Ġ PH
Ġ Atlanta
Ġf ucking
Ġ answered
b n
Ġ Kar
Ġc ategories
Ġ rational
Ġc ust
Ġro bot
Ġcorrect ly
Ġ gif
Ġg raphics
m ic
Ġ grounds
Ġ Opp
i ate
Ġdist ributed
Ġsan ctions
Ġchalleng ing
u to
Ġing redients
Ġinv ited
Ġ founded
Ġ Requ
d ed
Ġ bowl
Ġbroth ers
Ġ Ha
I O
Ġw ages
i more
o cial
Ġ seed
at ively
Ġadd resses
Ġ Iowa
ab eth
Ġatt itude
i sd
ch ild
Ġm ole
Ġd iscovery
y ard
B r
Ġ 82
Ġsupp lies
e lling
Ġdist ingu
C R
Ġre cept
Ġ vert
Ġsw im
b ec
d oor
Ġ Yeah
Ġ gal
Ġinter act
ĠE SP
Ġ CS
am ps
Ġconvin ced
Ġobj ective
Ġd ish
Ġ Photos
l ad
Ġd owntown
o il
in ction
Ġto morrow
Ġ COM
Ġsurv ival
s hot
Ġs ettlement
C ons
Ġ Xbox
int erest
Ġ SM
ar go
e ness
Ġ ethnic
b ered
M in
Ġ Tok
Ġ incent
Ġ Command
Ġmain tained
Ġ breaks
b ridge
a tar
a gg
Ġ Finally
un icip
Ġ Ont
le ft
Ġrecogn ition
Ġ */
Ġ Pers
Ġw elf
Ġadd ressed
Ġ Kansas
Ġv irus
Ġwhere as
Ġ papers
r ams
ĠMin istry
Ġple asure
Ġacqu ired
Ġ duration
j pg
Ġc alm
ĠN HL
Ġ burning
Ġ folder
ic ked
Ġ Py
ĠIll inois
C lass
ĠGodd ess
Ġ performing
Ġw elfare
j ar
In ter
Ġ lin
Ġenh ance
Ġn otion
f are
y pes
Ġ Area
Ġcann abis
ĠDie go
f s
Ġ Manchester
c omm
in ite
Ġcov ering
Ġ Sound
Ġ 1960
Ġ 84
e lect
z ing
Ġc itizen
Ġ phones
Ġ raid
Ġign ored
Ġ Object
Ġ upload
c ard
Ġ modified
Ġ rooms
i ah
r ange
h east
ac hus
Ġsugg esting
âĢ ĭ
g rade
E l
Ġcl othing
Ġ rh
Ġ Han
un ity
en cing
Ġ Austin
sec ution
t ra
d em
Ġ Qual
Ġhe aven
Ġst ages
Ġw edd
p lus
if icial
Ġ Imm
Ġ Ho
i eties
Ġ phrase
Ġb rill
a ctory
Ġprov iders
Ġsil ence
Ġ aer
Ġ AI
Ġ Adventure
Ġplat forms
Ġdemonstr ated
Ġinter f
ing ton
Ġr aces
Ġ grade
ult ane
Ġ Through
f alse
Ġ bow
Ġ AB
Ġfl avor
Ġ historic
g ov
Ġ colour
Ġview ed
Ġ Email
el come
Ġinter vention
Ġd iversity
Ġperiod s
Ġ reverse
Ġ Very
Ġ quote
Ġ Left
th rough
Ġs crew
Ġl anding
Ġ pill
Ġw et
Ġpro testers
Ġ repeat
a ved
er k
Ġsal ary
ĠPenn sylvania
St ill
Ġmay or
Ġkit chen
Ġf eaturing
ĠM useum
ĠT ournament
Ġ Fal
Ġser vers
U C
Ġany body
i mg
Ġ Trade
ixt ure
th eless
Ġf inance
Ġcl osing
ĠP atri
i ac
a bel
Ġ >>
o rous
Ġf irms
s creen
u na
Ġemb arrass
ul se
Ġl etting
Ġth rew
i ley
Ġch annels
l an
ĠVe gas
Ġs ear
Ġfant astic
ar re
u zzle
Ġ Der
Th ose
Ġ swing
Ġ sheet
ind ex
c over
o gan
Ġvari ables
Ġ Tech
Ġ spoken
a chel
Ġ Da
ĠM ountain
Ġ loaded
Ġfoot age
v ersion
Ġu nl
Ġ Phoenix
Ġth rowing
Ġf iring
Ġ tracking
Ġ width
Ġstrugg ling
ro oms
o tion
Ġmonth ly
Ġ Server
Ġeg gs
o pen
M C
Ġ 1993
Ġh ired
Ġst ayed
Ġ Allen
Ġ stro
Ġ 98
st ep
Ġ Turkish
Ġfab ric
is ting
Ġ Dom
Ġ dates
Ġ pron
Ġ basketball
Ġl ucky
ĠAra bia
Ġass umed
e sty
Ġaff airs
Ġg lad
Ġ Indeed
Ġ FA
Ġ Word
Ġ joining
if ice
p read
ir ts
Ġ Select
Ġpop ulations
a ware
Ġn ose
Ġcompl aints
st art
Ġ scoring
Th anks
Ġ mining
Ġvis itors
S H
Ġdam aged
Ġcharacter istics
ĠP ent
D C
Ġ 83
Ġ Six
r ates
Ġ flags
Ġ Brew
d og
M ark
/ ///
Ġexec ution
Ġj oke
ph ones
Ġtest imony
Ġob st
Q L
Ġ Cut
Ġstud ied
Ġ Nintendo
ic ket
Ġ NBC
Ġ lad
Ġ Bra
Ġ Moh
Ġ kernel
Ġover whelming
Ġ aged
Ġappl icable
Ġ Cond
Ġ roads
Ġ Block
m ade
od ge
Ġcomm ands
Ġoff ices
v eland
Ġt ut
Ġre ceiver
ĠF ro
Ġsh opping
Ġi P
Ġ Stre
Ġ ABC
Ġenter tainment
Ġ Bow
or ted
M c
Ġ reads
g rad
Ġ Collect
Ġ âĪĴ
Ġ Capital
ede ration
Ġemploy er
Ġinvolve ment
Ġan xiety
a lia
Ġr oof
Ġ Among
ĠDem ocrat
Ġ stats
Ġ Vill
Ġ constitutional
Ġrefer ring
i tty
Ġ tackle
ou tube
Ġ backed
Ġ Hong
Ġ Broad
Ġ ele
Ġ Ott
Ġ 1992
h our
achus etts
C al
Ġd efeated
Ġ 81
e sp
Ġseem ingly
w as
Ġ Jenn
ĠK urd
Ġg ene
Ġdis count
R et
E CT
( );
Ġcl ubs
Ġ sid
Ġ Marsh
Che ck
Ġ pp
ĠE ag
ide spread
Ġbe ings
F T
Ġintro duction
Ġ Change
A RD
Ġ 110
ad ows
ier ce
Ġ meal
a uthor
Ġ Bang
lah oma
Ġr anks
2 011
? ???
m ax
Ġcoll apse
Ġ opens
Ġ echo
Ġs oph
Ġ racist
Ġenorm ous
Ġ waves
Ġ tap
Ġcomp rehensive
. --
Ġ Roy
Ġfar mers
Re lated
a ired
r ones
ĠC rim
Ġpro portion
Ġdesign s
Ġnegoti ations
Ġvirt ually
Ġ Batman
Ġ warn
Ġleg itimate
m ate
Ġcon vention
, ,
n etic
Ġ SD
Ġconsist ently
Ġcomp ensation
Ġpun ishment
Ġ ye
Ġ tie
ĠB ureau
ir lf
Ġ Bu
Ġ Aren
Ġ Philipp
Ġ knife
Ġmem ories
Ġ Ross
Ġ angle
Ġ 86
Ġ Thunder
Ġ rend
Ġ Tour
Ġco unts
s ung
Ġ Imp
Ġeduc ational
Ġ accessible
C OM
Ġd rew
y er
G l
a mine
O RT
O B
I B
m aster
Ġtr ials
o gy
h ar
Ġ Trust
Ġpre ferred
irl friend
Ġ Nev
Ġ bin
Ġ cow
P age
Ġsig nature
Ġ BL
7 00
Ġret ired
Ġ bytes
Ġneigh b
Ġ Legend
Ġdev ast
Ġsus pected
is ons
Ġ PokÃ©mon
s cale
Ġcap abilities
Ġre vel
Ġche ese
d y
ig rant
Ġf ailing
b its
ĠHer oes
Ġ Ghost
Ġ Scient
Ġ appointed
u ri
Ġinst itution
Ġexp anded
g reg
Ġmonitor ing
Ġ podcast
Ġcoal ition
Ġ 96
J o
Ġst olen
Ġ Sab
Ġs tops
Ġ holiday
Ġin tr
C ar
Bl ack
Ġ LGBT
Ġ warming
Ġ Anderson
Ġ 89
Ġprod ucer
M ed
Ġacc uracy
Ġ Marvel
iz abeth
Ġ Patrick
m ony
Ġ mini
a cles
Ġo vert
t hey
Ġmember ship
Ġ Ven
Ġex ch
Ġrem oval
Ġ Dave
T Y
m ad
Ġ Find
Ġ adequ
Ġ ec
Ġte eth
Ġe motion
Ġ perm
Ġsole ly
d b
Ġextra ord
IG HT
c al
Ġgu idelines
Ġd ying
Ġsusp ended
ĠPrem ier
Ġ Anthony
el ve
Ġ dad
Ġ Eth
Ġ Football
Ġabandon ed
Ġ <<
Ġm arch
Ġhor ror
âĢ¦ "
Ġchild hood
Ġcampaign s
Ġl unch
Ġ Albert
b lock
âĸĪ âĸĪ
oun ding
Ġ bone
or gan
ad ers
Ġ Flash
Ġ Drive
Ġto night
Ġw ars
Ġ FL
Ġ formation
con st
N ews
Ġcom pe
o rious
Ġ Staff
Ġdisc ussions
ĠProt ection
Ġ Jam
Ġcrit eria
Ġinstall ation
Ġaccomp lish
i zza
Ġpub lisher
Ġres cue
Ġ Try
U LL
ĠS om
Ġ Hop
o ret
t hs
or don
Ġ pocket
Ġ Inv
Down load
Ġ Crime
Ġb ene
Ġ Guide
Ġ Assembly
Ġparam eters
I E
Ġ Alexander
Ġ concert
Ġ Sche
Ġsh oes
Ġvis iting
Ġre call
Ġ bub
Ġr ural
Ġcon crete
Ġ Ros
N ext
R uss
Ġlo ans
Ġ Shield
Ġt rem
he mat
k g
Ġ Harris
is ition
Ġ Move
Ġ FC
Ġf ate
Ġ Cho
Ġt ired
Ġprinc ipal
h ist
i ences
a thy
Ġs event
Ġm ood
Ġstr ategic
Ġdise ases
Ġ forum
Ġtem por
Ġhead quarters
P ar
i ge
fl ix
Ġgu itar
Ġ 94
On ly
Ġre leases
r oph
================ ================
Ġ 600
Ġ Continue
i gate
Ġ Crit
s ystem
Ġ disabled
Ġu nexpected
it hub
Ġun clear
Ġ Est
Ġcont rad
Ġstrateg ies
vent ures
Ġpass age
A ME
Ġimpro ving
Ġrev eals
Ġdecre ase
o va
Ġann oy
Ġ Short
Ġ Library
Ġcy ber
n ell
Ġ Hur
Ġ CB
Ġphot ograp
U I
Ġ sed
G e
Ġ 87
Ġd iverse
Ġencour aged
Ġcons piracy
Ġ birds
Ġ operator
Ġhand ful
Ġ classified
? )
Ġdra matic
Ġinvest igators
i to
Ġw idespread
Ġ Room
-------- --------------------------------------------------------
Ġcoll ective
Ġjournal ist
St ring
Ġtemper atures
i la
Ġg uid
Ġin spect
Ġmiss ile
Ġ Mayor
Ġman ual
Ġsim ultane
Ġrat ings
Ġs uck
Ġ 97
Ġ universal
Ġp harm
Ġdis rupt
i ano
A V
Ġ ft
Ġstat ist
ol ds
Ġ Walker
p hp
Ġund ert
Ġ Las
i shop
n til
res hold
Ġ Whether
M s
Ġd eny
Ġ Cloud
Ġprov ider
Ġsurv iv
Ġ Update
h as
Ġmi stakes
ch arge
p led
r ity
Ġ node
ĠMass achusetts
o ols
l ication
Ġf ails
e male
o ri
b acks
Ġ shirt
Ġ ''
Ġ NAT
Ġ waters
el son
Ġe ase
Ġ scar
Ġcont ents
m ind
Ġcont ribution
Ġ shr
Ġ handed
Ġst ability
Ġt rave
E m
Ġmir ror
1 23
Ġwe igh
Ġ fiction
ou ver
i stant
r ition
Ġ Fed
Ġphys ically
Ġs take
Ġ Article
Ġ Arc
Ġ Lewis
Ġ Mind
Ġdemon strate
Ġ profits
v ision
o mic
ol id
Ġbatt les
Ġdr ives
Ġe astern
Ġ Sony
! !!
a ration
v ard
Ġ GL
port ation
Ġ 92
Ġlaw makers
Ġprotect ing
Ġ EPA
Ġ yeah
Ġsh ame
ol ph
e ven
x it
Ġ attach
Ġrepresent ing
Ġ obs
Ġ Utah
if fs
Ġ Freedom
Ã ³
A K
Ġinc idents
it age
Ġview ers
c d
Ġ mouse
Ġc lar
Ġaccord ance
Ġ bot
c or
Ġ Summer
he ld
Ġinn ocent
Ġiniti ative
o ls
________ ________________________
Ġs pots
p ace
Ġcon ventional
Ġcorpor ations
Ġb locked
H D
at tered
Ġref ers
Ġ buck
Ġ Digital
1 20
Ġtop ics
T F
Ä ģ
b rid
re ement
Ġunder lying
Ġ Member
Ġinvest igating
Ġp regnancy
Ġtouch down
Ġ Band
ĠCa ller
Ġinst ances
P P
w a
G ood
Ġ 1991
Ġ Cold
Ġf ears
Ġre marks
Ĩ Ĵ
a tal
Ġ mit
Ġexper iments
i pt
C olor
in du
Up date
Ġ 93
A g
Ġ å
anc ouver
B oth
Ġjud ges
Ob ject
Ġst ere
um bn
Ġpartic ipation
Ġ Stars
Ġ Jere
Ġ weekly
Ġ Ban
Ġconvers ations
Ġ Pitt
u z
Ġ Indiana
Ġ Kick
Ġinf ection
Ġher oes
Ġsett led
Ġ strip
Ġ hal
Ġ dump
ĠS ci
Ġ les
Ġref erences
Ġ URL
Ġ Bridge
Ġw anting
F orce
Ġex clus
Me anwhile
m n
Ġg entle
m aker
sen al
Ġ Gro
o uri
Ġ Rain
ĠAll iance
Ġ lift
e la
S D
ĠCle veland
Ġ ranked
Ġst adium
Ġdead ly
ä ¸
Ġr iding
a ria
Ġ Armor
Ġdocument ation
ĠGree ce
re ek
Ġl ens
Ġ Sa
Ġ gross
Ġ Emer
a gers
Ġ Dub
Ġ Rh
Ġ AMD
Ġar rival
Ġdes ert
Ġsup plement
Ġ Resp
Ġk nee
Ġ margin
f ont
o gg
2 010
Ġ Pir
Ġ Prom
i vals
Ġin take
Ġdiffer ently
u gs
Ġ bits
cl uded
Ġse arching
Ġ Du
u mble
Ġ functional
Ġ Baltimore
Ġ Could
Ġdes ired
Ġcirc uit
Ġ Lyn
Ġ GO
Ġ False
re pre
' :
al ties
Ġmin im
Ġdr ove
Ġ Should
Ġ hip
Ġp ros
Ġut ility
Ġ Nature
Ġ Mode
P resident
o pp
r at
form ance
Ġconcent ration
Ġ font
ĠB ud
Ġa mid
Ġre vers
Ġ ML
B ar
Ġinter action
Ġjur isd
Ġsp ells
d ep
f il
Ġcivil ians
ut ter
ĠCo oper
Ġ Below
Ġent rance
Ġcon vert
Ġcontrovers y
o wered
Ġcont rary
Ġ arc
Ġ Executive
ĠOff icer
Ġ packages
Ġpro gressive
w idth
Ġre served
v ol
Ġ Samsung
Ġ printed
Ġcent ers
Ġintrodu ce
ĠKenn edy
Ġo dds
Ġsu rely
Ġ independence
Ġpass engers
rep rene
Ġ Beh
Ġl oves
Ġ ESPN
Ġfac ilit
Ġident ical
Ġd oct
Ġpartner ship
con f
Ġ Hide
Ġconf used
Ġ Cow
M en
Ġw rest
ĠIraq i
Ġ holes
Ġ Studies
Ġpregn ant
h ard
Ġsign als
I X
Ġpu lling
Ġ graduate
Ġnomine e
D ate
Ġper mitted
Ġ âĤ¬
ĠOk lahoma
St art
Ġ authorized
Ġal arm
Ġ Cos
v an
Ġgene rations
c ular
Ġ dragon
Ġ Software
Ġ Edward
Ġ controller
S en
g ered
ĠV ik
Ġappro ached
Th ank
Ġc ance
Ġform ula
Ġ Small
Ġweak ness
Ġr amp
it udes
j ud
Ġbrill iant
Ġac cus
s ource
Ġ 800
Ġ Evil
S w
Ġhom eless
we ek
i ens
r ics
Ġ Third
T O
Ġ organic
Ġpresent ation
a gh
Ġ Download
v ation
Ġ assembly
or able
hold ers
Ġ Bernie
Ġ Help
Ġt ong
Ġ Fight
Ġb each
B ook
Ġ Lic
Ġ rush
Ġ Round
o up
Ġ Marx
Ġcal culated
ĠD evil
Ġ Sarah
Ġocc asionally
Ġbul let
Av ailable
g ate
Ġ 91
Ġh osp
Ġprom ises
ĠH IV
ĠSt adium
Ġ Stock
ĠCorp oration
g age
N G
Ġ Credit
Ġs ne
i bl
Ġac cum
s uch
Ġterror ists
Ġconscious ness
ĠZ h
Ġd rama
o ola
p iration
Ġla bour
Ġ Nin
Ġ utter
Ġ democratic
Ġass ass
i lation
Ġ gest
Ġa broad
Ġme tab
Ġs orts
Ġf lav
U B
Ġ mg
Ġ Nothing
ĠO d
Ġmus ical
2 009
Ġ drops
oc ated
at eral
0 00000
Ġ gre
Ġ equality
Ġb urden
Ġv ig
Ġ Leader
- -----------
Ġcere mony
Ġ fighter
Ġa ctors
Ġ æ
a man
F i
Ġ align
p uter
Ġe lder
Ġ NSA
Ġrepresent ation
ĠOnt ario
I TH
usa lem
Ġhar assment
it zer
Ġsy mp
Ġ boxes
Ġ DR
Ġman ifest
a tre
Ġ ^
Ġ dies
l eton
Ġ missions
e the
Ġres olve
Ġfoll owers
Ġ asc
Ġ km
l ord
am med
Ġsil ent
Ġ Associated
Ġti ming
Ġprison ers
Ġ Kings
Ġ Five
Ġ tower
Ġappro aches
Ġprecise ly
Ġb ureau
Ġ Mother
Ġ Iss
Ġkey board
it ual
Ġ funded
Ġst aying
Ġpsych ological
Ġ mile
Ġ Leon
ĠB arb
w ill
Ġw ider
Ġ Atlantic
Ġt ill
ĠR ome
r ot
Ġ accompan
Ġfl our
a co
W orld
Ġ Express
Ġ Yu
C or
Ġp leased
p arty
Ġpoint ing
Ġin flation
Ġ roy
Ġ ),
a iner
Ġwe dding
or mon
Ġrequ iring
Ġ qualified
Ġse gment
E ND
Ġs izes
e als
Ġcor rupt
ass ador
Ġcel eb
Ġdream s
Ġ Mess
Ġ checking
Ġ Version
Ġprep aring
Ġ actively
Ġ Diff
Ġ lux
Ġ Winter
act eria
Ġ NE
Ġdep uty
Ġtrans gender
Ġ summary
Ġin her
e ries
c har
Ġ Yan
Ġkn ock
Ġ Path
Ġ lip
r oller
Ġimp ression
Ġcele brate
Ġsl ide
Ġgu ests
Ġ clip
F S
Ġsav ings
Ġcap tain
Ġleg acy
Ġ Denver
Ġw ounded
tab oola
A CT
Ġpurs ue
Ġ oxy
Ġ q
Ġs emi
Ġ Need
ĠAff airs
Ġob sc
Ġ checked
Ġd ual
C ode
Ġ MD
l em
ul ty
Ġ Â©
Ġ Elizabeth
Ġcent uries
ar ded
s rc
Ġev ident
en nis
a tin
Ġun employment
Ġ Mario
Ġin tim
Ch rist
Ġb iological
Ġsold ier
Ġ Added
Ġ math
Ġ Gil
Ġb ias
Ġ dating
Ġ Ocean
Ġm ice
M us
h ire
Ġ Tes
S erver
lim ited
S ize
Ġm eters
Ġ rocket
es see
Ġcert ificate
ĠIr anian
A SS
Ġ grid
D ec
Ġ rolling
com mun
ĠSw eden
b ury
Ġt issue
Ġrac ism
Ġ Local
Ġmy stery
Ġex amine
Ġ stem
Ġs its
Ġh oped
o ting
Ġdi alogue
Ġper su
W atch
l ay
M AN
Ġch ronic
Ġ Portland
mar ket
Ġ SEC
Ġpar allel
Ġsc andal
Ġcar ries
Ġphenomen on
h uman
a cker
Ġ Ox
Ġret irement
t ainment
ov ie
Ġ Gear
Ġd uties
Ġ dose
Ġ scroll
M B
in f
Ġsa uce
Ġland scape
red dit
ĠChampion ship
Ġ Reddit
al id
Ġ coin
Ġ overs
Ġpos ting
ab out
Ġf el
an dy
Ġ bold
Ġf ocusing
e ffect
G R
Ġde emed
Ġrecommend ations
Ġste pped
Ġv oter
Ġ Deep
ĠInst agram
Ġ moderate
ĠMary land
Ġ restricted
Ġ MB
Ġ Chall
Ġt ob
Ġc ir
Ġ Occ
Ġ Ever
Ġcoll aps
IN FO
= -
Ġ Pict
Ġ Account
n c
Ġ ought
Ġ export
Ġdr unk
( '
Ġ wise
ĠM ort
ne cess
Ġan cest
Ġ Incre
Ġf requent
m ir
Ġinterpret ation
Ġ dependent
Ġ coins
ĠB ol
V ideo
Ġ Justin
Ġf atal
Ġco oking
Ġconf usion
i pher
Ġcust ody
Ġ Morgan
om ach
ĠGovern or
Ġrestaur ants
e ling
Ġacknow ledged
Ġ ther
Ġg enes
c hing
H ey
Ġtac tics
ĠMex ican
Ġv end
Ġ hes
q uer
Ġn oting
ĠC ameron
Ġtarg eting
r ock
Ġc redits
Ġem otions
Ġrepresent atives
n ews
Ġlegisl ative
Ġre moving
Ġtweet ed
Ġ Carter
Ġ Fixed
Ġ forcing
Ġspe aker
Ġm ales
ĠViet nam
l ined
Ġconcept s
Ġvo ices
o ir
ĠT rib
W he
ĠJer usalem
ĠS ant
Ġ cul
Ġl ady
ĠHaw ai
Ġ arts
ĠI nn
Ġ Machine
ĠEm peror
Ġ slot
g ly
Ġ Process
I II
Ġath letes
ĠTem ple
Ġ Represent
Ġpr esc
Ġ tons
Ġgol den
Ġp unch
Ġ GR
iver pool
Ġen act
Ġl obby
Ġ mos
Ġ picking
Ġlif etime
Ġc ognitive
E ach
z o
Ġd ub
Ġcons ists
o ln
Ġf estival
am ous
Ġint ellig
w ords
Ġ Smart
Ġd ele
Ġl apt
Ġmag ical
Ġ Sin
b us
u rities
igh th
Ġ Ruby
Ġ Sure
ol ving
Ġ jun
O ST
Ġ imposed
Ġast ron
Ġcor rel
Ġ NS
Ġ Kit
Ġ Future
b urn
Ġ immune
o cus
Ġc ourses
Ġ String
Ġ lean
Ġ ghost
Ġout comes
Ġexp ense
Ġevery day
Ġ acceptable
A h
Ġ equipped
Ġ orange
F R
Ġ Dutch
Th ough
Ġ Rank
Q U
Ġ Roberts
w hat
r end
Ġdisapp ear
Ġ spawn
ĠL am
o is
Ġdes erve
Ġmin imal
Ġner vous
Ġ Would
Ġr ook
ĠV ancouver
Ġre sign
s hire
Ġ Works
Ġ Build
Ġaff ordable
Ġ Gary
ĠAr ena
Ġh anging
Ġimpl ications
Ġ Song
Ġmain taining
Ġ guards
C ON
Ġ derived
Ġexec uted
Ġthe ories
Ġqu oted
Ġ Andre
o ga
s eless
in fo
ĠBel g
Ġt ears
Ġ Surv
Ġbirth day
ig ious
im mer
Ġspect rum
Ġarchitect ure
Ġrec ruit
ar ma
T able
Ġmon sters
Ġ Gov
Ġdest ination
Ġatt ractive
Ġf oss
Ġ Moreover
Ġp resents
T HE
Ġ reply
p ton
Ġ cum
Ġd elight
Ġaffect s
Ġdon ations
Ġ Toy
ĠH im
M ENT
Ġover come
it ched
ĠF antasy
Ġ Hat
Ġ Beast
b ott
Ġinvestig ations
R un
Ġhun ting
d i
f und
Ġs essions
e style
Ġport ray
o ids
Y eah
Ġcommun icate
Ġcom edy
Ġ Yang
Ġ belt
ĠM arine
Ġpred icted
P lay
Ġimport antly
Ġrem arkable
Ġelim inate
D avid
Ġ bind
V ID
Ġadvoc ates
Ġ Gaza
i mp
D B
Ġ Na
Ġ Similar
I ES
Ġch arity
v as
m ath
Ġ âĸ
o ker
nd um
Ġ caps
Ġ Hal
2 000
e an
Ġ fleet
Ġre cre
R ight
Ġsle eping
i jing
k ind
Ġdesign ated
Ã ¤
Ġan imation
k ee
Ġ Introdu
Ġ />
Ġdel ayed
Ġtrem end
Ġc urious
U se
Ġ lect
d am
Ġinn ovation
Ġ Points
Ġ loading
Ġdisp ute
c tic
ir ds
Ġ BY
Ġn urs
Ġ Value
I ONS
Ġ Hum
Ġ template
m ers
Ġapp earances
ĠEnter tainment
Ġ translation
Ġs ake
Ġbe neath
Ġin hib
Ġ euro
abe tes
Ġstud ying
Ġ Mas
Ġper ceived
Ġexam ined
Ġe ager
Ġco aches
Ġim per
c hi
Ġprod uces
" ).
Ġ Everyone
Ġm unicip
Ġ girlfriend
Ġ hire
Ġ Vice
Ġsu itable
o py
Ġin equ
ĠD uke
f ish
f irst
Ġ Obs
Ġin terior
Ġ Bruce
Ġ Ry
Ġan alys
Ġconsider able
Ġfor ecast
Ġf ert
or ship
Ġ Drug
Ġ ALL
: "
t hur
Ġ Mail
Ġbal lot
Ġinst antly
Ġ Channel
Ġp icks
Ġ 1989
Ġt ent
o li
Ġciv ilian
b ling
e llo
b u
Ġ inch
Ġl ogo
Ġco operation
Ġw alks
Ġinvest ments
Ġim prison
ĠF estival
Ġ Ky
Ġleg ally
Ġg ri
ch arg
S l
Ġ threatening
d uction
f low
Ġdismiss ed
ibr aries
c ap
e le
ĠMc G
ĠHar vard
Ġ Conservative
Ġ CBS
p ng
Ġ roots
Ġ Having
um bled
Ġ Fun
\ /
Ġ Search
p lex
Ġdiscuss ing
Ġcontin u
Ġ Tai
Ġ Wik
F ree
f it
Ġref use
Ġman aging
Ġsy nd
i pedia
w alk
Ġprofession als
Ġguid ance
Ġunivers ities
Ġ assemb
un tu
F inally
A SE
Ġ Auto
Ġ Had
Ġann iversary
L D
Ġ Dur
Ġ Ultimate
i had
pro duct
Ġtrans it
Ġre store
Ġexpl aining
Ġas set
Ġtrans ferred
Ġ burst
ap olis
Ġ Magazine
Ġ Cra
Ġ BR
g ged
Ġ HE
M ich
b et
Ġ Lady
yl um
er ves
Ġme ets
wh ite
L og
Ġcorrespond ing
Ġins isted
G G
Ġsur rounded
Ġt ens
Ġ lane
Ġco inc
h ome
Ġex isted
ec ted
Ġ Double
l amm
Ġs kept
e xp
Ġper ception
i ev
Ġ Being
o ft
Ġad opt
. :
] ;
Wind ows
Ġs atellite
A SH
Ġinf ant
d escription
Ġ Meanwhile
c m
o ca
ĠT reat
a ctor
Ġtob acco
Ġ Norm
em ption
Ġf lesh
Ġ je
o op
ĠHe aven
Ġb eating
an im
Ġg athering
Ġcult iv
G O
a be
Ġ Jonathan
Ġ Safety
Ġbad ly
p rot
Ġcho osing
Ġcont acted
Ġ quit
Ġdis tur
Ġst ir
Ġ token
D et
Ġ Pa
Ġfunction ality
0 03
s ome
Ġlim itations
Ġm eth
b uild
con fig
N T
r ell
b lem
Ġ Mom
Ġveter ans
Ġ Hu
Ġtr ends
a rer
Ġ Given
ĠCa ption
m ay
A ST
Ġwond ering
Ġ Clark
n ormal
Ġsepar ated
Ġd esp
s tic
b rew
Ġrel ating
Ġ Nik
Ġ Farm
Ġenthus i
g ood
d eb
Ġact ivist
Ġ mart
Ġexpl osion
Ġ Economic
L ink
Ġin sight
Ġcon venient
Ġcounter part
su pport
ĠV irt
a gen
ĠTenn essee
Ġ Simon
ĠA ward
OC K
Ġ Figure
Ġovers eas
Ġp ride
Ġ Cas
n ote
m g
C urrent
Ġdis plays
c ontent
Ġtrave ling
Ġhosp itals
Ġ Financial
Ġ Past
Ġdef endant
Ġstre aming
m ble
ĠBer lin
u ki
Ġdist ribut
Ġant ib
Ġch ocolate
ĠCas tle
Ġinter rupt
Ġ Row
Ġcon version
Ġ bugs
Ġ Rather
l iest
L Y
Ġ Jean
com mon
a kh
Ġ 130
ot ton
Ġ Dean
Ġam endment
Ġgame play
Ġ Warren
o da
Ġhigh lights
Ġir re
ĠNA TO
Ġ balls
Ġdem anding
U RE
Ġ Luke
F igure
s top
o nia
z one
i zers
Ġ WR
Ġaw arded
Ġreg ulatory
Ġ Hart
Ġ SN
p ling
Ġs our
Ġ Pixel
us ive
Ġ fet
Ġ Sent
Ġ automatic
Ġ fer
vern ment
ĠK han
T ON
f ather
Ġextra ordinary
th rop
Ġ Python
Ġ GPU
Ġsex ually
Ġ desktop
it ivity
ĠAnton io
Ġ orient
Ġ ears
ob by
o uses
vertis ements
Ġmanufact urers
i cient
min ute
Ġconv iction
Ġg arden
p ublic
Ġsatisf ied
f old
O K
Ġin hab
Ġ Think
Ġprogram me
Ġst omach
Ġcoord in
Ġ holy
Ġth reshold
Ġr het
Ġ serial
Ġemploy ers
Ġ Everything
r ah
Ġb other
Ġbr ands
Val ue
Ġ Ted
Ġ Planet
Ġp ink
Ġ Furthermore
s a
P E
re ck
Ġ USD
ot te
Ġ &&
Ġl anded
g ets
Ġpro ducers
Ġhealth care
Ġdom inant
Ġd estro
Ġam ended
ch ron
Ġ fits
ĠS yd
ĠAuth ority
AT CH
Ġ fights
ĠL LC
Ġ ---
Ġ Corp
Ġt oxic
spe cific
Ġ Corn
Ġ Chel
Ġtele phone
ĠP ant
Ġmyster ious
a unch
od ox
m edia
Ġwit nesses
a gu
Ġquest ioned
Ġ Brexit
Ġ Remember
en ez
Ġend orse
iat ric
Ġ Ident
Ġridic ulous
1 10
Ġpr ayer
Ġscient ist
Ġ 1950
ĠA qu
Ġunder ground
Ġ UFC
m are
Ġ Later
w ich
Ġsub scrib
Ġho sts
Ġ err
Ġg rants
an tom
Ġsum mon
ear ly
Ġ Clear
Ġ Prim
Ġsusp ension
Ġguarant eed
a pper
Ġ rice
Ġ Sean
Ġ Shin
Ġrefer endum
Ġf led
r ust
Ġ 360
t ery
Ġsh ocked
B R
Ġ Oil
Ġ Allah
Ġpart ly
Ġig nor
Ġtrans mission
Ġhom osexual
iver sal
Ġhop efully
ãĤ ¤
Ġl esson
L eg
Ġ ..
Y et
t able
app ropri
r ett
Ġ boards
Ġin correct
Ġb acteria
a ru
a mac
Ġ snap
. '"
Ġpa rad
t em
he art
Ġ availability
Ġw isdom
Ġ( +
Ġpr iest
ĠÂł ĠÂł
O pen
Ġ span
Ġpara meter
Ġconv ince
Ġ( %)
r ac
Ġ fo
Ġsafe ly
Ġcon verted
ĠOlymp ic
Ġres erve
Ġh ealing
Ġ Mine
M ax
Ġin herent
Ġ Graham
Ġinteg rated
D em
Ġpip eline
Ġapp lying
Ġ embed
Ġ Charlie
Ġc ave
2 008
Ġcons ensus
Ġre wards
P al
Ġ HTML
Ġpop ularity
lo oking
Ġ Sword
ĠAr ts
' )
Ġelect ron
cl usions
Ġinteg rity
Ġex clusively
Ġg race
Ġtort ure
Ġb urned
t wo
Ġ 180
P rodu
Ġent reprene
raph ics
Ġg ym
ric ane
Ġ Tam
Ġadminist rative
Ġmanufact urer
Ġ vel
Ġ Ni
Ġis olated
ĠMedic ine
Ġback up
Ġprom oting
Ġcomm ander
Ġf lee
Ġ Russell
Ġfor gotten
ĠMiss ouri
Ġres idence
m ons
Ġre semb
Ġw and
Ġmeaning ful
P T
Ġ bol
Ġhe lic
Ġwealth y
Ġr ifle
str ong
r owing
p lan
as ury
âĢ¦ .
Ġexp anding
Ġ Hamilton
Ġrece ives
S I
e atures
Ġ Anim
R EE
P ut
Ġbrief ly
r ive
Ġstim ul
Ġ`` (
Ġ __
Ġ chip
Ġh az
Ġpr ize
Ġ Things
A CE
u lin
d ict
o ku
Ġass ociate
ock ets
y outube
St ory
ateg ory
Ġm ild
a iling
Ġ Ye
O rig
Ġ Ka
o rig
Ġprop aganda
Ġan onymous
Ġstrugg led
Ġout rage
A TED
ĠBe ijing
r ary
Ġle ather
Ġworld s
Ġbro ader
1 25
i dal
Ġ Better
Ġt ear
E xt
Ġpropos als
Ġ iter
ĠS quad
Ġvol unt
m i
D id
ĠP u
p in
Ġspe akers
Ġb orders
Ġ figured
= '
Ġsimultane ously
a eda
Ġ charging
Ġur ged
Ġcon j
2 56
Ġ Gordon
mer ce
Ġdocument ary
S hare
it ol
O NE
ĠG arden
h att
Ġ Thompson
an eous
ap ore
Ġt anks
Ġless ons
t rack
Ġout standing
Ġvolunt eers
Ġsp ray
Ġman agers
l arge
Ġc amps
Ġart ificial
Ġ Ru
Ġ bags
t hal
Ġ compatible
Ġ Blade
Ġ fed
Ġarg ues
F I
Ġun fair
Ġ corn
Ġ offset
Ġdire ctions
Ġdis appointed
ĠCon vention
Ġview ing
M E
o city
Ġtow ns
Ġl ayers
Ġ rolled
Ġj umped
Ġ attribute
Ġun necess
inc oln
Ġsup pose
ĠN ether
c ha
Ġbu ried
Ġsix th
B en
r essing
O UR
Ġw ound
Ġ cycl
Ġmechan isms
Ġcongr essional
Ġ Element
Ġag reements
Ġde cor
Ġclos est
Ġ Mit
Go ogle
} }
Ġm ixture
Ġfl uid
S ign
ĠSch olar
Ġp ist
as ket
a bling
Ġr acing
h ero
r iel
as sy
Ġche aper
b en
Ġver tical
ama care
Ġ Reading
g ments
Ġhelic op
Ġsac rifice
a ya
p aren
V A
Ġ Les
Ġ Studio
Ġviol ations
Ġ Anna
a cer
é ¾
Ġ Rat
Ġ Beck
Ġ Dick
Ġ ACT
Ġcom position
Ġ texture
Ġ Own
Ġsmart phone
Ġ NA
Ġf orb
im port
Ġdef ending
il st
r er
Ġ oh
Ġ Jeremy
Ġb anking
ce ptions
Ġ respective
/ .
Ġdr inks
Ġ Wi
Ġ bands
Ġ Liverpool
Ġg rip
Ġ Buy
Ġopen ly
Ġ reviewed
p ert
Ġver ify
Ġ Cole
ĠW ales
M O
Ġun pre
Ġshel ter
ĠIm perial
Ġ gui
ĠD ak
Ġsuggest ions
Ġexplicit ly
Ġ slave
Ġblock chain
Ġcomp eting
Ġp romising
S ON
Ġsoc cer
Ġconst itution
4 29
Ġdi stract
Ġ User
es ides
Ġ Method
ĠTok yo
Ġ accompanied
Cl ient
s ur
a log
Ġident ification
Ġinv asion
as ma
Ġindust ries
p pers
Ġsub tle
Ġ Unit
n atural
Ġsurv ived
Ġf law
ĺ ħ
ĠH oll
Ġdef icit
Ġt utorial
Ġ Chance
Ġarg uing
Ġcont emporary
Ġinteg ration
for ward
Ġt um
i tis
Ġh iding
Ġ Domin
Ġ Tan
Ġ Building
ĠV in
Ġspokes person
Ġ Notes
Ġemer ging
Ġprep aration
Ġp rost
Ġsus pects
Ġaut onom
D escription
Ġde alt
Ġ Pear
Ġste ady
Ġdecre ased
Ġs overe
ĠC lin
Ġgrad ually
or ses
Ġ WAR
S erv
ãĤ ¢
h r
Ġ dirty
Ġ Barn
Ġ BC
Ġd il
Ġcal endar
Ġ compliance
Ġch amber
b b
Ġpass enger
at eful
Ġ Title
ĠSyd ney
Ġ Got
Ġdark ness
Ġde fect
Ġ packed
ass ion
Ġg ods
Ġh arsh
IC K
le ans
Ġal gorithm
Ġoxy gen
Ġvis its
Ġ blade
Ġkil omet
ĠKent ucky
Ġ killer
P ack
en ny
Ġdi vine
Ġn omination
be ing
Ġeng ines
Ġ cats
Ġ buffer
Ġ Phill
Ġtr aff
A GE
Ġton gue
Ġrad iation
e rer
m em
ĠExpl icit
é¾ į
Ġcou ples
Ġph ysics
ĠMc K
Ġpolit ically
aw ks
Ġ Bloom
Ġw orship
e ger
u ter
Ġ FO
Ġmat hemat
Ġsent enced
Ġ disk
Ġ Marg
Ġ /*
P I
Ġ optional
Ġb abies
Ġs eeds
ĠScott ish
Ġ thy
] ]
ĠHit ler
P H
ng th
Ġre covered
in ge
Ġ powder
Ġl ips
Ġdesign er
Ġdis orders
Ġc ourage
Ġch aos
" },{"
Ġcar rier
b ably
H igh
Ġ RT
es ity
l en
Ġro utes
u ating
F il
N OT
w all
s burgh
Ġeng aging
ĠJava Script
o rer
li hood
Ġun ions
ĠF ederation
Ġ Tesla
Ġcom pletion
Ġ Ta
Ġpriv ilege
Ġ Orange
Ġn eur
pa rency
Ġ bones
Ġt itled
Ġprosecut ors
Ġ ME
Ġengine er
ĠUn iverse
Ġ Hig
n ie
o ard
Ġhe arts
Ġ Gre
uss ion
Ġmin istry
Ġpe net
Ġ Nut
ĠO w
Ġ XP
in stein
Ġb ulk
S ystem
ic ism
ĠMarket able
Ġpr eval
Ġp oster
Ġatt ending
ur able
Ġ licensed
Ġ Gh
e try
ĠTrad able
Ġ blast
à ¤
ĠT itan
e lled
d ie
H ave
ĠFl ame
Ġpro found
Ġparticip ating
Ġan ime
Ġ Ess
Ġspec ify
Ġreg arded
Ġ Spell
Ġs ons
ow ned
Ġm erc
Ġexper imental
l ando
h s
ĠDun geon
i nos
Ġcom ply
ĠSystem s
ar th
Ġse ized
l ocal
Ġ Girls
u do
o ned
Ġ Fle
Ġcon structed
Ġho sted
Ġsc ared
a ctic
ĠIs lands
Ġ MORE
Ġb less
Ġ blocking
Ġc hips
Ġev ac
P s
Ġcorp oration
Ġ ox
Ġ lighting
Ġneigh bors
Ġ Ub
a ro
Ġbe ef
Ġ Uber
F acebook
ar med
it ate
Ġ Rating
Ġ Quick
Ġ occupied
Ġa ims
Ġ Additionally
Ġ Interest
Ġdra matically
Ġh eal
Ġpain ting
Ġengine ers
M M
Ġ Must
Ġquant ity
P aul
Ġear nings
Ġ Posts
s tra
ãĥ¼ ãĥ
Ġst ance
Ġ dropping
s cript
Ġd ressed
M ake
Ġjust ify
ĠL td
Ġprompt ed
Ġscr ut
Ġsp eeds
ĠG iants
o mer
Ġ Editor
Ġdesc ribing
Ġ Lie
m ented
Ġno where
oc aly
Ġin struction
for table
Ġent ities
Ġ cm
Ġ Natural
Ġinqu iry
Ġ pressed
iz ont
for ced
Ġra ises
Ġ Netflix
Ġ Side
Ġ outer
Ġamong st
i ms
ow ski
Ġcl imb
n ever
Ġcomb ine
d ing
Ġcom pr
Ġsignific ance
Ġremem bered
ĠNev ada
Ġ Tel
Ġ Scar
ĠWar riors
Ġ Jane
Ġc oup
b as
Ġterm inal
, -
O H
Ġt ension
Ġ wings
ĠMy ster
ï¿½ ï¿½ï¿½ï¿½
Ġ Unlike
v alid
viron ments
Ġ Ali
Ġn aked
b ooks
ĠM un
ĠG ulf
Ġ density
Ġdi min
Ġdes perate
Ġpres idency
Ġ 1986
h y
I ND
Ġun lock
i mens
Ġ handled
ĠE b
Ġdisapp eared
Ġ genre
Ġ 1988
Ġ determination
St ream
i ko
ap ters
Ġac knowledge
J an
Ġcapital ism
P at
Ġ 2020
Ġpain ful
Ġcur ve
Ġb ombs
st orm
Ġ Metal
en cer
Ġ Fig
Ġ Aaron
an ches
Ġins piration
Ġex haust
t ains
a shi
Ġde script
Ġr itual
Ġ Chelsea
Ġpro motion
Ġ Hung
Ġ Ward
i va
Ġ ET
Ġt oss
al low
ĠFranc is
D ep
Ġh appiness
Ġ Glass
Ġ beta
Ġstreng then
N E
o a
Ġbut tons
Ġ Murray
Ġk icked
Qu est
Ġ Talk
Ġ Several
Ġ Zero
Ġd rone
ul k
Ġ cam
Ġ Mobile
Ġprev enting
Ġre tro
Ġ Ax
Ġcr uel
Ġ float
. ),
Ġf iling
Ġ Grant
ĠB or
Ġ rib
Ġchampion ship
Ġ Merc
Ġ styles
Ġ cake
Ġbuild s
Ġ Self
i ox
Ġe pic
o yd
B el
Ġ Stew
. (
a hu
Ġ Beyond
Ġ outs
Ġs olo
Ġ Tree
Ġpres erve
Ġ tub
A RE
r oc
Ġ Impro
ĠW right
Ġb und
Ġt raged
Ġoccas ional
b ian
Se cond
r ons
Ġinter actions
for med
s ing
Ġow ns
Ġh ockey
Gen eral
Ġl ogical
Ġex pend
Ġ escal
ĠGr iff
ĠC rown
ĠRes erve
Ġst opping
Ġexc use
se cond
Ġ operated
Ġre aches
ĠMal ays
Ġpoll ution
ĠBrook lyn
Ġ delete
Ġ hash
B lock
a ha
âĢ ³
Ġsh orter
p iece
> </
Ġh orm
ĠW at
Ġ Break
Ġpro hibited
Ġ intensity
Ġ Alan
Ġl iability
? !
an ded
Ġneigh bour
Ġ Collection
Ġ fires
Ġrevolution ary
f ly
ĠOr leans
Wh ite
Ġ Writ
ĠD awn
Ġs ettle
Ġ execute
B M
Ġspokes woman
Ġl ifestyle
Ġcl icking
Ġ Kill
Ġ Liberal
Ġ Nazi
Ġtra iler
Ġmount ains
Ġd amn
z es
p es
Ġp ressing
Ġb ail
ĠOrgan ization
Ġ pir
Ġth irty
Ġelect rical
Ġ 115
Ġ Poly
Ġ Rap
Ġ Strike
ĠC ann
Ġdem anded
Ġb acking
def ault
s peed
ĠLeg isl
Ġmot hers
Ġ Body
Ġvar iation
ced ented
p owered
le ading
N ever
Ġ grave
Ġ Anti
A W
Ġinterview ed
Ġ Gab
Ġ Fat
Ġr ookie
u u
Ġde pos
i xon
Ġam pl
re tion
Ġ Heat
Ġpeac eful
S M
i eve
Ġd iver
Ġ Victoria
Ġ mic
p df
Ġst ating
Ġl ung
Ġcritic ized
Ġvacc ine
Ġ Loading
ur se
T ake
Ġ Fran
Ġ Sold
Ġ Robin
Ġdet ected
Ġ Script
Ġ adjusted
Ġsen ator
Ġop posing
Er ror
C ount
Ġconf licts
Ġ ow
ĠAr gent
Ġm atching
h h
ĠT rek
st arter
" ),
Ġ AF
o der
x xxx
Ġ Alt
a cre
Ġ Pick
Ġ Solar
ĠD al
O ct
ĠB att
Ġ src
Ġeng agement
Ġexecut ives
Ġliber ty
j ava
Ġtal ented
igen ous
Ġcon secut
. ....
In fo
Ġhor rible
Ġ surprisingly
f eed
ic ating
Ġ LED
Ġfem ales
St ation
e ller
ĠOak land
Ġmech anical
i ology
Ġ Var
Ġrob ust
ett ings
o tta
Ġthe oret
Ġre tain
k ward
Ġ da
Ġdeploy ed
d el
Ġ Andy
Ġsub scribe
w eb
Ġ na
ĠMi chel
Ġpart ially
ĠCom ey
Ġc rown
ĠM aj
Ġ Blu
r ator
D ay
I NT
Ġ documented
ĠG DP
g i
c hell
Ġbru tal
ĠB ab
st ration
Ġthe ft
Ġ tube
@ @
Ġ query
ĠL incoln
Ġpub lishing
Ġw ore
o rical
Ġ ric
Ġno table
Ġsub sequently
n ex
Ġobs erve
ĠB oe
Ġ codes
m ain
W H
Ġ SL
Ġres idential
a van
Ġ mas
a rest
ad eon
O UT
Ġsoph istic
an te
Ġ cens
Ġ **
Ġm ortality
Ġy ours
Ġocc asions
Ġre called
Ġ Driver
Ġv ocal
Ġbath room
Ġs hops
Ġcollabor ation
ĠOb amacare
Ġ Cell
C har
S uper
C re
Ġt ends
Ġ torn
Ġeconom ics
a very
Ġ Raid
Ġ Sem
Ġshould ers
Ġex pecting
Ġ examination
e name
Ġ UI
i ability
o las
Ġ Amb
ĠD ra
Ġmid field
Ġ IC
Ġ layout
Ġflo ating
f i
it ative
Ġtremend ous
Ġ Ð
Ġab und
W ork
ĠLight ning
Ġsimilar ly
Ġcons ervatives
Ġp ray
B E
iz arre
Ġt empt
Ġ emphasis
Ġ Metro
Ġf ishing
Ġm arry
n eg
Ġ Study
Ġ reck
Ġdis pos
o ning
b site
Ġsus pic
Ġmer ch
ĠG ib
Ġ Description
Ġ DVD
w he
ĠY emen
Ġen vironments
o oting
Ġ Modern
e u
Ġreflect s
Ġh oney
Ġan alyst
Ġg ut
d ec
A ction
Ġhousehold s
Ġ ster
Ġtem ple
Ġre forms
Ġfavour ite
Ġdead line
Ġ LE
Th ree
Ġ Within
A ug
Ġn ights
el ta
Ġin valid
ĠEx change
ĠDel hi
w hen
in come
Ġ ðŁ
Ġwire less
sc ribe
i sta
Ġhost ile
Ġ ally
Ġg ig
Ġout lets
ĠD or
E MENT
Ġ ash
Ġab stract
O RD
Ġ Motor
Ġadv iser
is tle
Ġb ases
Ġcour tesy
Ġcross ing
Ġcl eared
Ġrefuge e
co system
Ġth rows
f un
bour ne
d ays
Ġdis agree
Ġ Native
Ġref lected
Ġ Fast
Ġ Yellow
ĠSing apore
Ġ Raven
Ġem brace
Ġ Ku
ĠC hen
Ġ Early
Ġapp ointment
Ġ Mini
it ement
Ġpl acing
Ġb icy
S R
Ġw his
S U
Ġinvest igated
Ġphot ographs
g ithub
Ġ Beat
Ġ Ring
ig hed
i ar
Ġev olved
er ald
Ġd un
Ġ hub
I AL
Ġencour aging
Ġ Print
Ġ Days
Ġpro secution
Ġ pants
a zy
l ive
Ġfoss il
Ġ Ju
Ġr ocks
ud ge
Ġ Race
Ġg reet
b ie
Ġf illing
Ġ Len
Ġdi abetes
Ġfire arms
u ming
enez uel
Ġ BB
Ġaccept ing
A TH
Ġre sort
Ġ hunt
r ik
u cker
a ments
Ġsu stained
Ġcross ed
Ġbreak fast
Ġatt ributes
l ected
a tile
Ġv ibr
Ġ Kal
ar son
o ples
Ġt ouched
Ġdam ages
Ġim pressed
r up
Ġ anch
Ġ Adams
H el
ĠVi ctor
Ġ mounted
Ġ CC
Ġdel icious
s pan
e lla
Ġel abor
am ples
Ġdef ic
Ġconst itu
u ates
Ġ Mission
Ġ Ther
Ġ Monster
b es
Re uters
ĠInd ones
h ill
mun ition
Ġconf irmation
Ġ Consider
a cent
Ġ jet
Ġ Employ
ĠG TX
n an
Ġ Spider
Ġ processor
Ġp atri
ĠPent agon
ĠRob inson
Ġreal istic
Ã ±
Ġapp earing
Ġ pipe
o med
Ġf ru
Ġaw ful
Ġeval uation
Ġint elligent
ĠC itiz
Ġfu ndra
od ium
Ġtwe ets
Ġ worn
p ring
Ġki dn
Ġreb els
ĠK am
ĠNether lands
Ġ SW
Ġacqu isition
Ġ Male
ãĥ ª
om bies
Ġtr adem
Ġ Status
B re
Ġ THIS
Ġad verse
Ġ NEW
s ign
Ġorgan isation
e nc
ĠHar per
a por
Ġ Members
Ġ Peace
ĠAir port
Ġ Others
Ġsc ratch
ĠP il
Ġs ensor
Ġad option
ĠHo tel
Ġ Drag
Ġhonest ly
Ġ yard
ĠFor ces
Ġpat ent
Ġ bass
Ġquiet ly
Ġbre athing
Ġ pose
i ors
Ġ Jess
st atic
I TE
O ffic
Ġ jew
w cs
Ġ 140
Ġp review
ip pi
Ġun fortunately
ok emon
Ġ horn
Ġre ass
Ġ peer
o cker
Ġun to
Ġ Gray
Ġc leaning
Ġatt racted
2 007
P oint
k ill
ĠAg reement
ur ches
Ġh orr
ĠMiss iss
Ġ worthy
Ġfl owers
t own
d ll
Ġre actions
Ġde ce
Ġind icating
M D
Ġp reference
ĠM VP
ess ional
Ġ Target
g ence
ĠInd ians
Ġ misc
Ġfr eely
Ġmus cles
Ġline up
Ġimp acts
o using
o mi
a cular
Ġcont rolling
ag ine
c ery
h ell
Ġ ranking
Ġ Nich
ĠA ve
1 28
Ġhigh way
Ġin cons
Ġ binding
Ġstru ggles
ĠPitt sburgh
Ġ gray
r in
Ġc omics
Ġ Sport
Ġrel atives
Ġf right
Ġp robe
ĠPort ug
Ġ voc
Ġ tu
ĠCor ps
Ġposs ibilities
Ġqual ify
wcs store
Ġl ibraries
Ġm igrants
Ġent ries
Ġconsec utive
v als
ĠChair man
Ġ hill
I ME
ĠG ard
Ġin equality
f ox
Ġ Save
Ġc ort
claim ed
Ġt raits
Ġ pour
Ġmiss iles
Ġess ence
Ġs ends
Ġall iance
Ġw ishes
Ġ Christopher
B ig
N Y
Ġ Jacob
s an
ur red
Ġ SO
l ly
Ġadv ocate
ĠB ond
Ġ" /
U sing
Ġdistrict s
Ġ Gate
Ġ Bir
r idge
Ġ Naz
Ġ Rs
bo ards
Ġ Ga
ĠRe agan
Ġinflu enced
1 000
a py
Ġchall enged
Ġb arg
Ġfac ulty
Ġ Fif
Ġac quire
A c
Ġin sect
Ġinstr uments
Ġ leaf
th odox
M essage
Ġ tale
Ġthere by
Ġ trap
Ġstrong est
Ġ Military
is ible
Ġ 1984
e theless
Ġflex ible
Ġk ills
Ġfin ishing
Ġ Size
Ġred uces
Ġe pid
Ġorient ation
f ull
Ġ trace
Ġl aser
Ġop pose
Ġed iting
Ġmoment um
ä º
s how
V I
ĠL ad
Ġ 1985
Ġmurd ered
9 00
u ther
Ġprob ability
Ġ Poll
Ġrel uct
Ġ Chem
ĠMont real
Ġadequ ate
ĠP oland
ĠSher iff
u mph
Ġ ok
Ġ 000
Ġ "[
Ġoper ators
Ġ Fer
Ġm odes
ĠE ve
Ġdis cipline
N ET
H and
Ġ oral
Ġ WE
e mail
J P
ĠPalestin ians
Ġh ence
Ġ Less
Ġove rl
d ig
Ġintim id
ĠCo al
Ġ ranging
t ha
Ġd istant
Ġf ib
Ġ Index
Ġ Wonder
ĠP el
hat tan
Ġ Hug
Ã Ĺ
r ait
Ġwr apped
Ġ RPG
Ġchem icals
Ġ Money
Ġf rozen
Ġin direct
Ġ Against
E nd
Ġuncom fortable
Ġ Gallery
Ġ Posted
Ø §
on duct
Ġcon sequence
Ġb itter
Ġ 1987
p op
Ġcount less
ĠAl aska
f fff
Ġdepart ure
Ġre fund
Ġ Ian
i ated
Ġs eeks
Ġmechan ics
Ġjurisd iction
ly nn
Ġa like
Ġ Hunt
at hon
Ġres olved
Ġ cache
Ġdist inction
d irect
Ġen count
o ub
b eat
Ġ Country
s earch
Ġcontin uous
Ġmo dest
Ġ Rail
t hood
1 30
B UG
Ġcrim inals
Ġind ication
Ġencount ered
l ast
ĠW y
Ġide ology
Ġ PDF
sec urity
] )
Ġ Jimmy
Ġ EN
Ġh iring
T em
Ġp ig
a unt
Ġ Crystal
Ġpen alties
Ġcap ability
Ġ py
Ġ productive
Ġ balanced
ĠGe Force
cl ick
ol itan
o ds
Ġafter wards
Ġplay offs
ĠG ill
U ser
Ġ backs
p ub
t ag
Ġabs urd
p iring
Ġc iting
Ġtr illion
Ġoblig ation
Ġmax im
ah oo
c f
u mi
Ġ Alpha
ĠN elson
Ġpursu ant
in itely
Ġf ract
en try
b ery
Ġ Thor
Ad ded
Ġ DJ
Ġ Gene
Ġaw kward
St ud
Ġ wallet
ĠDi vine
ar ios
Ġre leasing
Ġ edited
Ġaccomp lished
B est
Ġed ges
Ġ planes
Ġ feeding
" },"
Ġdis closure
Ġ grain
a iry
o ons
ern and
V R
Ġreason ably
Ġd rum
Ġ partial
Ġg raphic
Ġunpre cedented
Ġad vised
M icro
Ġ Assad
po ints
s car
Ġ Zone
t tes
Ġ 700
v o
ĠH amp
Ġ fixes
Ġc aution
Ġ strings
Ġpa nels
Ġle ak
Ġpr icing
row th
Ġ Error
ĠS aints
f ix
Ġobserv ations
Ġ Abs
Ġsuggest ion
ĠUkrain ian
Ġbar rier
Ġ painted
B et
i mir
Ġ Spect
p ot
or neys
Ġcom pound
Ġb ears
Ġ Rush
Ġlux ury
S um
Ġ orbit
Ġ Marc
Ġ exempt
ĠT rail
Ġ MO
ĠH ans
Ġ Weapon
oc used
umi num
Ġ Jerry
Ġb ust
Ġ AG
Ġ Wiki
Ġend less
ĠV lad
Ġ Bah
ĠR adeon
ke ys
ĠSur vey
Ġ Viol
de fine
l ean
Ġc ommod
Ġreven ues
Å į
Ġfurn iture
Ġ casting
Ġdiplom atic
Ġ Players
ĠK illed
Ġmod ify
Ġinnov ative
ĠA bu
n or
Ġb onds
Ġco aching
M er
Ġ modules
ĠPat riots
Ġenh anced
Ġproceed ings
Ġteam mates
Ġ 128
ar do
Ġcomprom ise
Ġ Much
Ġfl ew
Ġ Edge
Ġun necessary
Ġdoct rine
r eport
ĠOr lando
Ġ Profile
Ġplay off
friend ly
Ġcom plain
Ġ MC
Ġ Opt
Ġ GB
Ġbe aten
Ġg olf
Ġpl acement
B it
Ġnews letter
Ġ 2019
vis or
ra wl
Ġi Pad
Ġ acted
Ġju ice
Ġde cks
P N
su ccess
Ġ Half
Ġde leted
Ġsec rets
Ġas ylum
M art
Ġ Activ
Ġ Guy
Ġ Ts
Ġd ys
Ġ assuming
Ġm ana
Ġsu bur
Ġ 125
M edia
A RY
r ide
c p
Ġdifficult ies
Ġcollect ing
Ġbank rupt
n on
Ġcom posed
Ġ volt
Ġmilit ants
Ġ >>>
ĠM ormon
t or
Ġp articles
ĠB art
ry ption
Ġ admin
Ġsqu ee
VID IA
Ġ creator
ia meter
i cular
N BC
Ġgrab bed
Ġn odd
Ġ rated
Ġr otation
Ġgr asp
Ġex cessive
Ġ EC
Ġ Whit
Ġ inventory
a ults
Ġ FB
Ġe cosystem
Ġb illions
Ġ venture
n amed
Ġdef ender
o ute
In stead
ir able
W ar
Ġass umption
Ġ bite
Ġearth qu
t ail
s pace
Ġg ifts
b oys
Ġinev itable
Ġstruct ural
Ġbenef icial
Ġcom pelling
h ole
er vation
Ġ coat
o j
inc arn
Ġ Years
Ġdeter mining
Ġrhet oric
Ġbound aries
Ġwh ites
A nt
ad dy
) -
ra ham
e termin
Ġhar vest
ĠCo nc
Ġl aptop
Ġ Match
Ġenjoy ing
c ca
ol lar
Ġtr ips
Ġadd iction
ĠS ak
Ġ powered
Ġc ous
ĠRuss ians
i ere
Ġret rie
q uality
Ġdi ffer
Ġking dom
ĠL aur
ĠCap itol
Ġcon clusions
Ġ Altern
Ġ Nav
Ġtrans parent
B ER
G roup
Ġ Complete
Ġin fer
Ġint rig
Ġins ane
R O
oph ob
i sen
q ual
M ichael
Ġm useum
Ġ Pope
Ġ reset
r ative
f ive
Ġag greg
itt ees
os itory
Ġ carb
Ġ Record
Ġdec ides
Ġ Fix
Ġex ceptions
ĠCommission er
u ns
Ġ Environmental
Ġlegend ary
ist ence
Ġtun nel
k m
Ġins ult
Ġt roll
Ġ shake
Ġdet ention
q ues
ĠCh rome
Ġ Files
Ġsu bt
Ġpros pects
Ġp rol
r ender
pr oof
Ġperform ances
S tr
Ġ href
er name
Ġachieve ment
Ġf ut
F ull
ĠLe ban
go ogle
ãĥ Ī
am pa
May be
Ġpro jected
Ġ Emb
Ġcol leg
Ġa wards
Ġ âĶ
G old
Ġ Blake
ĠR aj
if ting
Ġp ending
Ġinst inct
Ġdevelop ments
Con nect
Ġ Mand
ĠW ITH
ĠPhilipp ines
pro file
Ġal together
ĠB und
Ġ TD
o ooo
am ped
i ph
Ġ steam
Ġol dest
Ġdet ection
ul pt
Ġ ç
ĠW ayne
2 006
f a
Ġcir cles
Ġ Fu
Ġdon ors
appropri ate
ĠDak ota
j amin
Ġmot ivated
Ġpurch ases
ĠLouis iana
Ġ Spl
Ġgl obe
Ġ 105
z ip
c all
Ġdep artments
Ġs ustainable
1 05
Ġ OP
if iers
Ġprev ented
Ġin comp
ĠComm ander
Ġ dominated
Ġ Â»
Ġinv ested
Ġcomplex ity
Ġin cl
Ġens uring
Ġre alm
y nc
Ġ Independent
r ained
Ġ Jen
Ġ Flight
Ġ athe
Ġspe culation
Ġ TE
oc ate
t ic
Ġpl aint
h erry
Ġt oy
Ġ 111
Ġ plates
st atus
Ġ Isa
Ġdev oted
C op
Ġ ES
2 55
ur rency
M ain
Ġsl aves
Ġpe pper
Ġqu otes
Ġce iling
Ġ Fish
Ġtrans formation
Ġf raction
Ġadvant ages
Ġto ile
Ġst unning
Ġmo ist
bre aking
s i
Ġ Location
Ġ Medium
Ġtex ts
Ġu gly
Ġb io
. âĢĶ
Ġ Based
Ġtr ains
Ġ Wing
Ġ Ancient
ĠRec ords
Ġ Hope
Spe cial
ad esh
o bi
[ /
Ġtempo rarily
V er
h u
o ser
Ġo vernight
Ġm amm
ĠTre asury
ĠV enezuel
Ġ Mega
Ġ tar
Ġex pects
bl ack
or ph
\\ \\
Ġaccept ance
Ġra dar
s is
Ġjun ior
Ġ frames
Ġobs ervation
a cies
P ower
Ġ Advanced
M ag
olog ically
ĠMe chan
Ġsent ences
Ġanaly sts
augh ters
force ment
Ġv ague
Ġcl ause
Ġdire ctors
Ġ evaluate
Ġcab inet
M att
Ġ Classic
A ng
Ġ cler
ĠB uck
Ġres earcher
Ġ 160
Ġpoor ly
Ġexperien cing
Ġ Ped
ĠMan hattan
Ġf reed
Ġthe mes
ad vant
Ġ nin
Ġp raise
1 04
ĠLib ya
b est
Ġtr usted
Ġce ase
Ġd ign
D irect
Ġbom bing
Ġm igration
ĠSc iences
Ġmunicip al
Ġ Average
Ġgl ory
Ġrev ealing
Ġar ena
Ġuncertain ty
Ġbattle field
i ao
G od
Ġc inem
r ape
el le
ap ons
Ġl isting
Ġwa ited
Ġsp otted
ke ley
Ġ Audio
e or
ar ding
i dding
ig ma
Ġ Neg
Ġl one
Ġ ----
e xe
d eg
Ġtrans f
Ġ wash
Ġsl avery
Ġexpl oring
Ġ WW
at son
Ġen cl
l ies
ĠC reek
Ġwoo den
Man ager
Ġ Brand
um my
Ġ Arthur
Ġbureau cr
Ġbl end
a rians
F urther
Ġsupposed ly
Ġwin ds
Ġ 1979
Ġ gravity
Ġan alyses
Ġ Travel
Ġ Veter
Ġd umb
Ġaltern ate
g al
Ġcons umed
Ġeffect iveness
. ''
Ġp aths
o nda
L A
Ġ Strong
Ġen ables
Ġesc aped
Ġ ""
Ġ 112
Ġ 1983
Ġsm iled
Ġtend ency
F ire
Ġp ars
ĠR oc
Ġ lake
Ġf itness
ĠA th
ĠH orn
Ġh ier
Ġim pose
m other
Ġp ension
i cut
b orne
ic iary
. _
Ġ SU
Ġp olar
i sy
en gu
itial ized
A TA
w rite
Ġexerc ises
Ġ Diamond
o types
Ġharm ful
o nz
Ġprin ting
st ory
Ġexpert ise
Ġ Ger
Ġtraged y
Ġ Fly
Ġd ivid
a mpire
st ock
M em
Ġre ign
Ġun ve
Ġam end
ĠProp het
Ġmut ual
Ġ Fac
Ġrepl acing
H ar
ĠCirc uit
Ġthr oat
Ġ Shot
Ġbatt eries
Ġt oll
Ġadd ressing
ĠMedic aid
Ġp upp
Ġ Nar
ol k
Ġeq uity
M R
ĠHi span
Ġ Large
m id
D ev
Ġex ped
Ġd emo
ĠMar shall
erg us
Ġf iber
Ġdiv orce
Ġ Create
Ġs lower
ĠPar ker
Ġ Student
Ġ Training
Re turn
ĠT ru
Ġc ub
ĠRe ached
Ġ panic
Ġ quarters
Ġ rect
Ġt reating
Ġ rats
ĠChristian ity
o ler
Ġsac red
Ġdecl are
ul ative
e ting
Ġdel ivering
e stone
Ġ tel
Ġ Larry
Ġ meta
ac cept
ar tz
Ġ Roger
h anded
Ġ header
Ġtr apped
ĠCent ury
Ġkn ocked
ĠOx ford
Ġsurviv ors
b ot
Ġdemon stration
Ġd irt
Ġass ists
O ME
Ġ Draft
ortun ate
fo lio
p ered
u sters
g t
Ġ Lock
Ġ judicial
ver ted
Ġsec ured
o uting
Ġ Books
Ġhost ing
Ġl ifted
l ength
Ġ jer
Ġwhe els
Ġ Range
umbn ails
Ġdiagn osis
t ech
ĠSte wart
Ġ Pract
Ġnation wide
Ġd ear
Ġoblig ations
Ġg rows
Ġmand atory
Ġsusp icious
! '
A pr
G reat
Ġmort gage
Ġprosec utor
Ġedit orial
ĠK r
Ġproc essed
ung le
Ġflex ibility
Ear lier
Ġ Cart
ĠS ug
Ġfoc uses
Ġstart up
Ġb reach
ĠT ob
c ycle
ãĢ Į
r ose
Ġb izarre
ãĢ į
Ġveget ables
$ $
Ġret reat
o shi
Ġ Shop
Ġ Ground
Ġ Stop
ĠHaw aii
Ġ Ay
Per haps
Ġ Beaut
u ffer
en na
Ġproduct ivity
F ixed
cont rol
Ġab sent
Ġ Campaign
G reen
Ġident ifying
Ġreg ret
Ġprom oted
Ġ Seven
Ġe ru
ne ath
aug hed
Ġ Pin
Ġ Living
C ost
o matic
m ega
ĠN ig
o cy
Ġin box
Ġe mpire
Ġhor izont
Ġbr anches
Ġmet aph
A ctive
e di
Ġ Film
Ġ Something
Ġ mods
in cial
Ġ Original
G en
Ġspir its
Ġe arning
H ist
Ġr iders
Ġsacr ific
M T
Ġ VA
Ġ Salt
Ġoccup ation
Ġ Mi
Ġdi sg
l ict
Ġ nit
Ġn odes
e em
ĠP ier
Ġhat red
p sy
ãĥ ī
Ġthe ater
Ġsophistic ated
Ġdef ended
Ġb esides
Ġthorough ly
ĠMedic are
Ġbl amed
ar ently
Ġc rying
F OR
p riv
Ġs inging
Ġ Il
Ġc ute
o ided
oli tical
ĠN euro
å ¤
Ġdo nation
ĠE agles
Ġ Give
T om
Ġsubstant ially
Ġ License
Ġ Ja
Ġ grey
Ġ Animal
Ġ ER
Ġ Und
Ġk een
Ġcon clude
ĠMississ ippi
Eng ine
ĠStud ios
P ress
o vers
l lers
Ġ 350
ĠR angers
Ġ rou
er to
E p
is sa
i van
Ġs eal
ĠReg ist
dis play
Ġwe aken
u um
ĠCom mons
Ġ Say
Ġcult ures
Ġl aughed
Ġs lip
Ġtreat ments
iz able
m art
ĠR ice
Ġb east
Ġob esity
ĠLa ure
i ga
Wh ich
h older
Ġelder ly
Ġp ays
Ġcompl ained
Ġ crop
Ġ proc
Ġexplos ive
Ġ Fan
Ġ Arsenal
A uthor
e ful
Ġm eals
Ġ (-
i days
Ġimag ination
Ġann ually
Ġ ms
as ures
H ead
i kh
m atic
Ġboy friend
Ġ Computer
Ġb ump
Ġsur ge
Ġ Craig
ĠK irk
D el
med iate
Ġscen arios
Ġ Mut
Ġ Stream
Ġcompet itors
Ù Ħ
ĠStan ford
Ġ Resources
a zed
b age
Ġorgan is
Ġ Release
Ġsepar ately
Ġha bits
Ġmeasure ments
Ġ Close
Ġac company
Ġ gly
Ġt ang
ĠR ou
Ġ plugin
Ġcon vey
ĠChall enge
o ots
j an
Ġc urs
Ġ Relations
k eeper
Ġappro aching
p ing
Spe aking
Ġarrang ement
Ġ VI
ar ettes
Ġaffect ing
Ġper mits
b ecause
Ġu seless
ĠH us
! !!!
Ġdest roying
Un fortunately
Ġfasc inating
S em
Ġelect oral
Ġtrans parency
ĠCh aos
Ġvolunt eer
Ġstat istical
Ġ activated
r ox
W eb
H E
ĠHamp shire
is ive
M ap
Ġtr ash
ĠLaw rence
s tick
C r
Ġ rings
E XT
Ġoper ational
o pes
D oes
ĠEv ans
Ġwitness ed
P ort
Ġlaun ching
e conom
w ear
Ġ Particip
u mm
c ules
Ġ RAM
ĠT un
Ġass ured
Ġ binary
Ġbet ray
Ġexpl oration
Ġ Fel
Ġad mission
it ated
S y
Ġav oided
ĠSim ulator
Ġceleb rated
Ġ Electric
¥ ŀ
Ġc luster
itzer land
he alth
L ine
ĠN ash
a ton
Ġsp are
Ġenter prise
Ġ DIS
cl udes
Ġf lights
Ġreg ards
Ġ ÃĹ
h alf
Ġtr ucks
Ġcont acts
Ġun cons
Ġ Climate
Ġimm ense
N EW
o cc
e ctive
Ġemb od
Ġpat rol
Ġbe side
Ġv iable
Ġcre ep
Ġtrig gered
v erning
Ġcom parable
q l
Ġg aining
as ses
Ġ ();
Ġ Grey
ĠM LS
s ized
Ġpros per
" ?
Ġpo lling
Ġs har
Ġ RC
Ġfire arm
o rient
Ġf ence
Ġvar iations
g iving
Ġ Pi
os pel
Ġp ledge
Ġc ure
Ġs py
Ġvi olated
Ġr ushed
Ġ stroke
Ġ Blog
s els
Ġ Ec
, ''
Ġp ale
Ġ Collins
t error
ĠCanad ians
Ġt une
Ġlabor atory
Ġn ons
t arian
Ġdis ability
Ġ Gam
Ġs inger
al g
Ġ Senior
Ġtr aded
ĠWar rior
Ġinf ring
ĠFrank lin
Ġs train
ĠSwed ish
Ġse venth
ĠB enn
Ġ Tell
Ġsynd rome
Ġwond ered
i den
+ +++
i go
Ġpur ple
Ġjournal ism
Ġre bel
Ġ fu
b log
Ġinv ite
r encies
Ġ Contact
Is rael
Ġ Content
Ġch eer
Ġ bedroom
ĠEngine ering
ĠQue ens
Ġd well
ĠPlay Station
Ġ Dim
ĠC olon
l r
Ġoper ates
Ġmot ivation
U SA
as tered
C ore
Ġ Truth
o lo
O SE
Ġ Memory
Ġpre dec
Ġan arch
Ġ 1920
ĠY am
Ã ¨
b id
Ġgr ateful
Ġexc itement
Ġtre asure
Ġlong est
ct ive
Ġdes erves
Ġres erves
Ġc ops
ĠOtt awa
ĠEgypt ian
an ked
Ġar tif
Ġhypot hesis
: /
Ġpurch asing
Ġlove ly
H P
Ġdiv ide
Ġstrict ly
Ġquestion ing
Ġtax payers
Ġ Joy
Ġr olls
Ġ Heavy
Ġ ports
Ġm agnetic
Ġ inflamm
Ġ brush
t ics
â ĪĴ
Ġbott les
p py
Ġp add
ãĤ ¯
m illion
Ġdevast ating
Ġcomp iled
Ġmed ication
Ġtw elve
ĠP erry
S pace
i mb
y our
Ġle aked
Ġ Tar
Ġ unity
Ġinf ected
Ġtrave led
I DE
ĠMc Donald
t xt
Ġ Princ
Ġinter ven
ĠTai wan
ĠP ow
Ġ bearing
Ġ Thread
Ġz ones
iz ards
un ks
Ch apter
l lor
Ġ Â·
Ġw ounds
Ġdisc retion
Ġsucceed ed
i king
Ġic onic
C all
Ġscree ning
Ġ Mis
ic ts
Ġmin isters
Ġsep aration
P layer
Ġb ip
Ġbel oved
Ġcoun ting
Ġ Eye
a round
in ging
Ġtab let
Ġoff ence
i nance
h ave
Ġ Info
ĠNin ja
Ġprot ective
Ġ Cass
M ac
Ġ Quality
N orth
Ġ ic
ĠC uba
ĠChron icle
Ġ Property
Ġfast est
ot os
ĠG erm
O WN
Ġb oom
ĠStan ley
ergus on
Ġcl ever
Ġen ters
m ode
te rior
ĠS ens
Ġ linear
AR K
Ġcomp aring
Ġpu rely
Ġs afer
ĠPot ter
Ġc ups
R T
Ġgl uc
Ġatt ributed
Ġdu pl
ĠP ap
Ġpre cious
Ġ pa
iction ary
ĠT ig
Ġ Too
ol utions
s tan
Ġro bots
Ġl obb
Ġstat ute
Ġpre vention
w estern
1 60
Ġ Active
Ġ Maria
h al
N one
el lar
Ġ KB
ĠPart ners
Ġ Single
Ġ Following
an go
a cious
Ġt hou
Ġ kg
Ġinflu ential
Ġ Friends
S ur
ain ted
Ġ forums
Ġ starter
Ġcitizen ship
ĠE lection
on ge
ot ation
os ph
;; ;;
u tical
p ur
e ren
Ġaccus ations
b itious
ab bit
Ġ Ord
Po sted
ir k
Ġs ensitivity
i che
Ġ Amy
Ġ Fab
Ġsum mit
Ġpe dest
Ġrub ber
Ġagric ultural
Ġc ancel
A E
Ġin aug
Ġcont am
Ġfirm ly
i w
st age
ĠK an
Ġ tier
Ġin vention
Ġtrans lated
Ġ Rules
B ox
Tw itter
I DS
Ġp izza
Ġ debug
Ġ Drop
v s
Ġh orses
b ig
Ġb oring
Ġ hood
ĠMcC ain
at ched
ĠB ros
Ġ skip
Ġes say
st at
ĠLeg ends
Ġam munition
a uc
Ġsh ooter
Ġun h
Ġsupp lied
Ġ generic
Ġ SK
i ban
y rics
Ġ 255
Ġclim bing
For mer
Ġf lip
Ġj umping
Ġfr ustration
Ġ Terry
Ġneighborhood s
Ġmed ian
b ean
Ġbr ains
Follow ing
Ġ shaped
Ġdr aws
Ġal tered
J ack
Ġrec ipes
Ġ skilled
we alth
a chi
e lection
Ġbehav iors
d eals
Ġ Until
F e
Ġdecl aration
m arks
Ġ Between
cel ona
Ġr eson
Ġbub ble
A mong
Ġim perial
G S
Ġfe minist
2 005
Ġ Kyle
Ġaccount ing
Ġ Tele
ĠT yr
Ġconnect ing
Ġre hab
Ġ Pred
s im
Ġmean time
Ġphys ician
M W
ĠCamp bell
Ġ Brandon
Ġcontribut ing
Ġ Rule
Ġ Weight
Ġ Nap
Ġinter active
Ġ vag
Ġhel met
Ġ Comb
f our
Ġsh ipped
Ġcom pleting
Ġ PD
PD ATE
Ġsp reading
Ġsc ary
er ving
Ġ Gas
Ġf rank
s chool
Ġrom antic
Ġst abil
R ob
Ġaccur ately
Ġac ute
ĠH ann
Ġsymb ols
Ġcivil ization
Ġ AW
Ġlight ning
Ġcons iders
Ġ venue
Ġ ×
Ġ oven
Ġ SF
h is
Ġ nu
Ġ Learn
Ġpe oples
Ġ std
Ġs lee
Ġs lic
Ġ Statistics
Ġcor ners
ĠB aker
Ġ: )
ment ation
ol ver
Ġlaugh ing
Ġ Todd
on de
ĠH ills
Ġ nuts
Ġ Woman
p lane
Ġl iver
Ġ Inside
S orry
Ġag rees
Ġfund ament
ĠF isher
Ġa uction
Ġth reads
g las
Ġ Basic
Ġ Nat
Ġl acking
Ġceleb ration
j u
Ġs illy
E uro
Ġt att
igh ty
cont rolled
T est
ĠSin gh
Ġ rage
Ġrh yth
o ffic
ĠPh antom
Ġhead lines
Ġresp onding
Ġ Morning
Ġv itamin
Ġb oots
Ġ Site
a lin
p i
Ġv iral
Ġ UC
D ER
Ġ Sex
Ġ stocks
c urrent
Ġch urches
Ġ Rare
ĠMur phy
Ġden ial
Ġ Gaming
Ġt oug
Ġ nick
Ġ makers
ĠRon ald
Ġgen erous
Ġ Doc
ĠMor ris
Ġtrans formed
Ġ Normal
Ġ 104
ĠKick starter
Ġ Upon
On line
ĠI RS
Ġ wrap
Ġ loving
Ġarr ives
Ġ Due
Ġ heter
Ġ Made
Ġr ental
Ġbel ongs
Ġatt orneys
Ġcr ops
Ġ matched
ul um
o line
1 09
Ġdis par
Ġbu yers
ĠCam bridge
Ġeth ics
ro ups
Ġjust ified
Ġmarg inal
Ġ respected
w inning
Ġnod ded
ĠSer ge
Ġ Former
C raft
######## ########
ĠWar ner
Ġ dash
e te
Ġent ert
ĠE scape
out heast
Ġkn ees
Ġ Bomb
Ġ rug
P ass
Ġatt itudes
go vernment
Ġ Prior
Ġqu alities
Ġnot ification
Ġ Phone
l ie
Ġ anticipated
Ġ Combat
ĠB arry
Ġ 1982
U sers
o ner
Ġcom puting
ĠConnect icut
Ġles ser
Ġp eers
Ġ Cu
Ġtechn ically
Ġsub mission
Ġ Universal
Ġman ually
our ge
Ġrespond ents
Ġ BTC
Ġ Host
Ġ fare
Ġ Bird
Ġrece ipt
al so
Ġ jack
Ġagric ulture
Ġsk ull
Ġ! =
Ġpass ive
Ġ CI
Ġsoc ieties
Ġre minded
Ġinter ference
B uy
Ġ âľ
g on
Ġscrut iny
ĠW itch
Ġconduc ting
Ġ ãĥ
Ġex changes
ĠMit chell
Ġinh abit
Ġtw ist
B D
Ġwhere ver
gro upon
Ġj okes
ĠBen jamin
Ġ Random
f rame
ĠL ions
Ġhighlight ed
ĠArk ansas
E nt
Ġp ile
Ġpre lim
g s
min ded
Ġfel ony
Ġ GA
Ġ Luck
Ġpract ically
ĠB os
Ġact ress
D am
ĠB ou
Ġv isa
Ġemb edded
Ġhy brid
Ġear liest
Ġso oner
s ocial
Ġ HA
Ġste ep
Ġdis advant
Ġexpl oit
ĠE gg
Ġ Ultra
Ġnecess ity
L ocal
ie ge
Ġ dated
Ġm asses
Ġsub scription
p less
Ġan onym
Ġpres umably
Bl ue
The ir
asket ball
ĠPhi lip
Ġ comed
l oaded
r ane
Ġref lection
Ch ina
Ġext ends
Ġ forming
Ġ unders
2 001
Ġg rat
Ġconcent rations
Ġins ulin
Ġse cular
Ġwh ilst
Ġwin ners
Ad vertisements
Ġdeliber ately
Ġ Working
Ġs ink
e tics
d ale
Ġman date
Ġ gram
Ġva cation
Ġwar nings
r ipp
ĠTH AT
Ġcomm entary
Ġin tu
Ġa est
Ġreason ing
Ġbreak down
ĠZ ombie
Ġ -->
Ġ Political
c ott
Ġth rust
Ġtechn ological
Ġdec iding
Ġtraff icking
L ong
W elcome
p rising
ĠCommun ications
Ġend ors
Ġsw ift
Ġmet abol
co ins
r esa
Ġ HTTP
Ġen roll
Ġ Happy
u sr
int age
Ġ ["
u ably
Ġ Material
Ġrep eal
S ept
k h
ĠM odi
Ġunder neath
Ġ IL
sh ore
Ġdiagn osed
ace utical
Ġs hower
a ux
Ġ Switch
Ġ Strength
Ġj ihad
n ational
Ġtra uma
us sy
o ni
Ġcon solid
Ġcal ories
ĠF lynn
a gged
1 68
Ġ Pink
Ġful fill
Ġ chains
Ġnot ably
Ġ AV
L ife
Ġ Chuck
m us
Ġ Urban
ĠH end
Ġdep osit
Ġ Sad
Ġaf fair
OR K
i eval
ĠF DA
Ġ trop
Ġ Overall
Ġvirt ue
Ġsatisf action
a und
Ġl un
ĠSw itzerland
Ġ Operation
pro cess
Ġs hook
Ġcoun ties
le ased
ĠCharl otte
1 12
Ġtrans cript
Ġ redd
p ush
Ġ Hey
Ġ Analysis
[ "
Ġaltern atives
ard less
Ġel eph
Ġpre jud
ĠLe af
H aving
Ġ Hub
Ġexpr essions
Ġ Volume
Ġsh ocking
ĠR eds
Ġread ily
Ġplan ets
a data
Ġcoll apsed
ĠMad rid
Ġir rit
i pper
Ġ Enc
Ġ Wire
Ġb uzz
Ġ GP
a sha
Ġacc identally
u ru
Ġfrust rated
Ġ SA
Ġhung ry
ĠH uff
Ġlab els
an to
Ġ EP
Ġbar riers
) |
ĠBer keley
ĠJ ets
Ġp airs
ĠL an
J ames
Ġ Bear
Ġhum or
ĠLiber ty
Ġmagn itude
Ġ aging
ĠM ason
Ġfriend ship
um bling
Ġemer ge
Ġnews papers
Ġam bitious
ĠRich ards
a ternal
Ġ 1981
Ġcook ies
Ġsc ulpt
Ġpur suit
L ocation
Ġ scripts
p c
Ġarrang ements
Ġd iameter
Ġl oses
am ation
Ġl iqu
Ġ Jake
a rette
Ġunderstand s
Ġ Zen
v m
Ġappro ve
Ġw ip
Ġul tra
Ġ intend
Ġ DI
as cular
Ġst ays
ĠK or
ĠK l
Ġinv esting
L a
Ġbel ieving
b ad
m outh
Ġtax payer
ãĥ ĥ
ĠQue bec
Ġ lap
ĠSw iss
d rop
Ġd rain
i ri
e tc
f ten
ĠN ex
Ġst raw
Ġscream ing
Ġcoun ted
Ġdam aging
Ġamb assador
cent ury
Ġp rox
Ġarr ests
u v
il ateral
Ġ Charg
Ġpre scribed
Ġindepend ently
Ġf ierce
Ġ Baby
Ġb rave
Ġ suits
= >
Ġbas eline
Ġ Rate
Ġis lands
Ġ ((
g reen
ix els
Ġname ly
ĠVill age
t han
a my
V ersion
g mail
ent ials
ĠS ud
ĠMel bourne
Ġarr iving
Ġquant um
e ff
rop olitan
T ri
Ġfun eral
Ġ IR
ÃĥÃĤÃĥÃĤÃĥÃĤÃĥÃĤ ÃĥÃĤÃĥÃĤÃĥÃĤÃĥÃĤ
ĠC ob
it ably
Ġt urb
Ġc ombo
Re view
Ġdeploy ment
u ity
Ġ Bott
Ġin visible
Ġrend ering
Ġun locked
Ġ aqu
ĠVlad imir
Ġ pad
Ġ Brain
ĠLeg acy
d ragon
ĠKurd ish
Ġs ounded
Ġde tained
Ġ DM
g ary
Ġd aughters
Ġdistur bing
u ka
ĠPa rad
Ġt ast
Ġunf ortunate
Ġ ul
e min
Ġattend ance
t rl
Ġp arks
ĠMem orial
Ġ Alice
o thy
gu ard
ĠD ise
ĠS han
ĠF orum
R ich
Ġsh ifted
u ez
Ġl ighter
Ġ Magn
Ġ cod
S ch
h ammad
P ub
3 50
Ġ Pokemon
Ġ prototype
Ġun re
B ase
Ġ Students
Ġ Reply
ĠCommun ist
Ġg au
Ġ Tyler
I Z
Ġpart icipated
Ġsu prem
Ġ Details
Ġvessel s
r od
Ġt ribe
ke ep
Ġassum ptions
Ġ pound
Ġcr ude
Ġ Available
Ġsw imming
Ġin clusion
Ġadv ances
c ulation
Ġcons ervation
Ġov erd
ĠBuff alo
Art icle
ed ge
Ġ awa
Ġ Madison
Ġsid ew
Ġcat ast
Ġ Krist
u cle
ĠHigh way
Ġ Terror
Ġ activation
Ġun conscious
ĠS atan
Ġ Susan
ill ery
Ġar ranged
i op
Ġrum ors
ur ring
th ink
Ġ Keith
Ġ Kind
Ġavoid ing
b yn
n ut
ĠSpe aker
r us
n ames
Ġg uilt
ĠOlymp ics
Ġs ail
ĠM es
le vant
ĠColumb us
a ft
C ity
S outh
ĠHar vey
ĠP un
S everal
Ġment ally
Ġim press
m ount
ĠUb untu
âĢĶâĢĶâĢĶâĢĶ âĢĶâĢĶâĢĶâĢĶ
ĠSup erman
ĠM Ps
Ġintent ions
ĠR acing
Ġlike lihood
Ġ 240
T otal
Ġt oys
ĠW atson
Ġur ge
L ear
Ġ Paper
Ġocc urring
ĠB eng
Ġ Cert
Ġ stones
T im
ĠT win
z b
ĠD ynam
Ġpolit ician
k ens
ĠEnter prise
UT ERS
Ġ abol
Ġre fresh
Ġarbit rary
p ection
Ġtrou bles
Ġ });
t v
Ġpil ots
Ġdist ribute
Ġau dit
Ġ pause
orig inal
Ġr ivals
Â £
F ig
T L
a bil
r ying
L in
i oned
l on
Ġf ancy
Ġcr ashed
Ġt ract
Ġ shed
Ġcons ume
B ased
down load
i nit
Ġvolt age
Int rodu
Ġcondem ned
ĠF inance
re spect
Ġex cluded
Ġestab lishing
h eric
Ġher itage
Ġspect acular
Ġun st
ĠSnow den
ĠL ane
S an
Ġprote ctions
st ruction
inc inn
Ġma cro
C ustom
i osity
Ġ esp
Ġfunction ing
Ġm ush
Ġp uzzle
Ġ ethical
M al
Ġgo verning
ĠF erguson
Ġrest ored
Ġst ressed
Ġ Counter
ĠK as
c lip
A NS
Ġse iz
U K
b yss
ol down
a pi
Ġperman ently
oun ters
W est
Th rough
L ight
at oes
Ġn eat
Ġc ord
u rer
Ġsevere ly
ĠA ven
Ġinter rog
Ġtr iple
G iven
N umber
Ġa rise
Ġs her
pl ant
Ġ flower
ĠC ou
Ġ ate
Ġne wer
b ul
Ġme anwhile
Ġ Lair
Ġadjust ment
Ġ Copyright
Ġd ivers
i ological
Ġga mers
o at
Ġhist orically
Ġan alog
Ġlong time
Ġpr escription
Ġ Mist
Ġ Hyper
ĠM aine
ĠDe ity
Ġ multipl
ĠRe incarn
Ġ Hyd
Ġ Pic
S il
r ants
ĠC ris
. ;
( {
epend ence
Ġ recy
at eur
Ġ quad
Ġgl ob
Ġcon ced
te am
Ġ capitalist
Ġ Lot
Ġr oyal
ĠCy ber
Ġbl acks
m etic
r iv
Ġ Danny
Ġs po
Ġ RO
Ġan imated
rypt ed
ĠDep uty
Ġ rendered
F E
Ġstre ak
Ġclo uds
Ġ Doug
~~~~ ~~~~
Ġdis cour
Ġ Veh
Ġpsych ology
ĠJ ourney
Ġcry stal
ĠF rost
Ġsusp icion
Ġre late
o rus
Ġ Crypt
Ġ NVIDIA
c omed
u ting
incinn ati
Ġv ulnerability
o stic
Ġis olation
Ġco oling
ĠCoal ition
Ġ 119
F our
Ġ Deal
Ġ âī
se mble
r ament
ĠBar celona
Ġ 102
Ġcoc aine
ocaly pse
F eb
o genic
Ġm utation
Ġcrypt oc
ĠK el
ĠG it
a is
Ġs isters
A NK
Ġ activate
T er
Ġd read
y lon
Ġp ropri
A ust
Ġ Default
Ġout door
Ġsh eer
ce ive
Ġ gently
Ð ¾
P rogram
Ġ âĨĴ
Ġve gan
ĠC rus
Ġrespons ibilities
Ġ HR
O LD
Ġpr events
Ġst iff
Ġ Were
Ġathlet ic
Ġ Score
Ġ ):
Ġcolumn s
Ġ Loc
av ailable
Ġ Fram
ĠS essions
Ġcompan ion
Ġ packs
1 40
ĠKn ights
Ġf art
Ġstre ams
Ġ shore
Ġapp eals
Ġ Performance
h aul
Ġ Stra
ĠN ag
1 03
ĠTrans portation
B B
E v
z an
P ublic
Ġt win
uls ion
M ult
Ġelect ro
Ġstat ue
ation ally
ĠN ort
Ġin spection
/ *
i gue
Ġcomp assion
ĠT ales
ĠS tein
Ġ Screen
Ġ Bug
ĠL ion
g irl
Ġwithdraw al
Ġobject ives
Ġblo ody
Ġprelim inary
Ġj acket
Ġdim ensions
Ġ Cool
Ġ Occup
Ġ wreck
Ġdou bled
an king
Ġ 1975
Ġg lasses
ĠW ang
p rov
P ath
conn ected
Ġ Multi
ĠNor way
agon ist
Ġf eared
Ġtou ching
Ġarg uably
Â¯Â¯Â¯Â¯ Â¯Â¯Â¯Â¯
ĠNC AA
c hem
Ġs pat
ĠW WE
ĠC el
i gger
Ġatt acker
Ġ Join
ob ject
e tta
Ġelim inated
d et
Ġ destruct
ĠLu cas
ct uary
1 80
ĠBr ady
ĠBl ues
B ay
au kee
Ġtim eline
Ġde legates
w ritten
u fficient
Ġsh apes
Cop yright
o uble
ser vice
Ġp ione
Ġcolle ges
Ġ rows
Ġs pite
Ġass essed
3 60
Ġ lease
Ġconf idential
c ker
ĠMan ning
Ġ Voice
Ġse aled
Ġcalc ulate
N O
Ġ Assistant
Ġteen ager
ul ent
athe rine
Ġm ock
Ġd iamond
Ġ fest
Ġsw itched
Ġres ume
ĠPu erto
Ġl anes
i ration
Ġ Similarly
Ġ rod
Ġ Sel
ĠPa lace
Ġ Limited
e ous
Ġvar iant
Ġ ward
Ġ ))
S how
O OK
A lex
ĠN ep
b ris
Ġ Wikipedia
Ġexcept ional
Ġman ages
Ġ Draw
A gain
Ġco pper
u tt
Ġex ports
Ġport folio
Ġelev ated
R ated
Ġ Otherwise
Ġ Tact
ĠS hel
Ġ TX
" âĢĶ
Ġre sur
Ġ Wa
ve nant
Ġmon etary
pe ople
E mail
Ġf ifty
Ġ Sweet
ĠMalays ia
Ġconf using
ĠR io
u da
ute nant
" );
Ġp raised
Ġvol umes
t urn
Ġm ature
Ġnon profit
Ġpassion ate
Ġ Private
Ġ 103
Ġdes cend
ç ¥ŀ
uf fy
he aded
Wh ether
r ien
z ech
be it
Ġ chrom
ĠMc M
Ġd ancing
Ġe leg
ĠNot iced
1 15
Ġadvoc acy
EN TS
am bling
Ġ Minor
ĠF inn
Ġprior ities
Ġthere of
Ġ Stage
ĠRo gers
Ġsubst itute
Ġ Jar
ĠJeff erson
Ġ lightly
1 02
Ġ Lisa
u its
ys ical
Ġsh ifts
Ġd rones
Ġwork place
Ġre sid
en sed
a hn
Ġpref erences
s erver
Ġdeb ates
d oc
ĠG ods
Ġhelic opter
Ġhon our
Ġconsider ably
e ded
Ġ Female
Ġ Anne
Ġre un
Ġ Face
ĠH allow
ĠB udget
Ġcond emn
Ġt ender
Pr of
ocr atic
ĠTur ner
ĠAg ric
Ġ 1976
Ġ apt
d isc
ĠF ighter
ĠA ur
Ġgar bage
in put
Ġ Karl
ĠOl iver
Ġ Language
k n
N on
Ġ Clar
Ġtrad itions
Ġ advertisement
ĠS or
Ġ archive
Ġvill ages
7 50
Ġimplement ing
w aukee
Ġdi etary
Ġsw itching
Re public
Ġvel ocity
Ġ cit
ĠA wards
Ġfin ancing
Ġl asted
) ]
Ġrem inder
P erson
Ġpre cision
Ġdesign ers
ĠF ried
Ġ Border
Ġtr agic
Ġw ield
Ġiniti atives
Ġ Tank
w er
Ġjo ins
R o
i nery
Ġ arrow
Ġgene rating
fo under
Ġsear ches
Ġrandom ly
A ccess
Ġ batch
Ġ posed
l at
Ġpurs uing
a sa
Ġtest ified
for ming
Ġ Shar
w iki
Ġ Either
S ometimes
Ġsen ators
Ġ Johnny
ĠTal iban
ĠG PS
":" /
ãģ® å
Ġanaly zed
ĠRub io
ĠMov ement
o pard
i ii
St and
f ight
Ġign oring
i ang
Ġ GN
so ever
Ġ STAT
Ġref using
Ġsw eat
Ġ bay
P ORT
ir med
a ky
Ġdis pro
Ġlab eled
Ġ 108
H ello
Ġ pleasant
a ba
Ġtri umph
Ġa board
Ġin com
ĠC row
l ett
Ġ folk
Ġch ase
` `
ĠB rus
Ġte ens
c ue
Ġter rain
h yd
i light
O RY
Su pport
e ws
l li
r aints
Ġ Cand
Ġab used
ach ment
l arg
B as
ĠC ancer
Ġ 1978
Ġsup porter
a ccess
Ġ Termin
ĠT ampa
Ġ ANY
Ġne west
ĠC riminal
e du
Ġ1 930
Ġad mits
Ġ ende
Ġfail ures
u rate
ful ness
cy cl
Ġ Subject
Ġinf inite
th ree
W A
p it
Ġ Install
R ad
il iation
G M
Ġcont inent
Ġaccommod ate
ĠC lay
Ġp up
Ġ Function
Ġ hammer
ĠAlbert a
Ġre vised
Ġminor ities
Ġmeasure ment
Con nell
Ġ disable
Ġ Mix
In cre
Ġ fork
ĠR osen
Ġimp lies
umb lr
A NG
Ġprote ins
Ġag gression
Ġfacilit ate
S N
Ġilleg ally
u er
Ġac adem
Ġp uzz
Ġ Shift
p ay
o llo
Ġaud iences
B uild
Ġno ble
Ġsy ntax
â ĺħ
Ġ beam
Ġ Bed
ĠA ld
Ġori gins
v ideo
Ġ 1977
ĠAss ault
Ġga rage
Te am
Ġver dict
Ġd war
Ġ Virtual
e vent
Ke ep
Ġsent iment
Ġwild life
s hirt
Ġ burg
Ġrecommend ation
re present
Ġ gallery
ow ners
Ġsch olar
Ġconven ience
ĠSw ift
Ġconv inc
C ap
Ġwar fare
Ġ Visual
Ġconst itute
Ġab ort
Ġ Weather
Ġ Looking
ĠH em
Ġmart ial
Ġin coming
et ition
Ġt olerance
Ġ Created
Ġ flows
ĠE lder
Ġs ouls
Ġf oul
Ġ Pain
Ġ CAN
Ġ 220
b c
h end
Ġgen ius
R eal
Ġ Wr
o meter
p ad
Ġlim iting
Ġ Si
ĠL ore
ĠAd ventures
Ġva ried
D isc
f in
Ġ Personal
Ch ris
Ġinv ented
Ġd ive
ĠR ise
Ġ oz
ĠC omics
Ġex pose
Ġ Reb
let ters
s ite
im ated
Ġh acking
Ġ educated
Ġ Nobody
Ġde pri
Ġincent ive
ãĤ ·
Ġover sight
Ġt ribes
ĠBelg ium
Ġlic ensing
o urt
Pro duct
a hl
ĠG em
Ġspecial ist
Ġc ra
an ners
ĠCor byn
Ġ 1973
RE AD
Ġsum mar
Ġover look
Ġ Application
Ġin appropriate
Ġdown loaded
Q ue
ĠB ears
Ġth umb
Ġ Character
ĠReincarn ated
ĠS id
Ġdemonstr ates
s ky
Ġ Bloomberg
Ġ Array
Ġ Results
Ġ Fourth
ĠE DT
ĠO scar
c end
Ġ 106
Ġ NULL
ĠH ERE
m atch
ĠB run
Ġgluc ose
i eg
e gu
Ġcert ified
Ġre lie
Ġhuman itarian
Ġpr ayers
K ing
Ġ nan
h ou
1 08
u lu
Ġrenew able
Ġdistingu ish
Ġd ense
ĠV ent
Ġ Package
Ġ Boss
Ġed itors
Ġm igr
T ra
ĠP eters
ĠAr ctic
2 004
ĠC ape
Ġl ocally
Ġ lasting
Ġh andy
. ).
P an
Ġ RES
Ind ex
Ġt ensions
Ġ formerly
Ġide ological
Ġsens ors
Ġdeal ers
Ġdef ines
S k
Ġproc eeds
Ġ proxy
az ines
ĠB ash
Ġ Pad
Ġ Craft
eal ous
Ġ sheets
o metry
J une
c lock
T T
ĠThe atre
Ġ Buzz
Ġch apters
Ġmill enn
Ġd ough
ĠCongress ional
Ġimag ined
av ior
Ġcl inic
Ġ 1945
Ġ holder
r oot
ol ester
Ġre start
B N
ĠH amas
Ġ Job
Ġ orb
Ġ ram
Ġdis close
Ġtrans late
Ġ immigrant
Ġannoy ing
Ġtreat y
an ium
Ġ Tea
ĠLeg ion
Ġcrow ds
Ġ Bec
ĠA er
o hyd
B ro
Lo oking
Ġ lbs
Ġag gress
Ġse am
Ġinter cept
Ġ MI
mer cial
act iv
ĠC it
Ġ dimension
Ġconsist ency
Ġr ushing
ĠDou glas
Ġt rim
In stall
i cker
Ġs hy
1 06
Ġmen tions
p elled
ĠT ak
c ost
Ġclass room
Ġ fortune
dr iven
Ġun le
Ġ Wheel
Ġinvest or
ĠM asters
k it
Ġassoci ations
ĠEv olution
o ping
u script
Ġprov incial
ĠW alter
a vi
S O
Ġun limited
Eng lish
ĠC ards
ĠEb ola
n ered
Ġre venge
Ġout right
um per
Ġ fitting
Ġ Solid
Ġform ally
Ġproble matic
Ġ hazard
Ġenc ryption
Ġstraight forward
Ġ AK
Ġ pse
ĠO rb
ĠCh amber
ĠM ak
Cont ents
Ġloyal ty
Ġl yrics
Ġ Sym
Ġwel comed
Ġ cooked
Ġmon op
Ġn urse
Ġmis leading
Ġe ternal
Ġsh ifting
Ġ +=
V is
Ġinst itutional
ill ary
Ġp ant
V ERT
Ġ ACC
Ġ Enh
Ġin con
ĠRE UTERS
Ġdon ated
âĢ¦âĢ¦ âĢ¦âĢ¦
In tern
Ġex hibit
Ġt ire
ĠR ic
ĠCh ampion
ĠMu hammad
N ING
ĠSoc cer
Ġmob ility
Ġva rying
Ġ Movie
Ġ lord
o ak
F ield
Ġ vector
us ions
Ġsc rap
Ġen abling
m ake
T or
. *
| |
Ġ Website
ĠN PC
Ġsocial ist
Ġ Billy
Ġ Additional
Ġc argo
Ġf arms
Ġ Soon
ĠPr ize
Ġmid night
Ġ 900
s een
Ġ Spot
Ġshe ep
Ġ sponsored
Ġ Hi
Ġ Jump
Ġ 1967
Micro soft
Ġ Agent
Ġch arts
d ir
Ġadj acent
Ġt ricks
Ġm anga
Ġex agger
/ >
foot ball
ĠF CC
G C
Ġ Tier
a ndra
OU ND
% ),
Ġf ruits
V C
Ġ AA
R ober
Ġmid st
â Ĺ
an ka
Ġlegisl ature
Ġ Neil
Ġtou rists
" "
Ġ Warning
Ġ Nevertheless
Ġ Official
Ġ Whatever
Ġm old
Ġd rafted
Ġsubst ances
Ġb reed
Ġ tags
Ġ Task
Ġ verb
Ġmanufact ured
com ments
ĠPo lish
P rov
Ġdetermin es
Ob ama
k ers
Ġutter ly
Ġ sect
s che
ĠG ates
ĠC hap
Ġal uminum
Ġz ombie
Ġ Touch
Ġ UP
Ġsatisf y
Ġpred omin
a script
Ġelabor ate
Ġ 1968
Ġme asuring
Ġ Vari
any ahu
Ġs ir
ul ates
id ges
ick ets
ĠSp encer
T M
oub ted
Ġp rey
Ġinst alling
ĠC ab
r eed
re ated
S upp
Ġw rist
ĠK erry
1 07
ĠK le
Ġ Rachel
Ġc otton
Ġ ARE
Ġ Ele
Cont rol
Ġ loads
ĠD od
a nas
b one
Ġclass ical
ĠReg ional
Ġ Integ
V M
Ġdes ires
Ġaut ism
sup ported
Ġ Message
Ġcomp act
w riter
Ġ 109
ĠHur ricane
c ision
Ġ cycles
Ġd rill
Ġcol league
Ġ maker
G erman
Ġmist aken
S un
Ġ Gay
Ġwhat soever
Ġs ells
ĠA irl
l iv
Ġ Option
Ġs olved
Ġse ctors
Ġhor izontal
Ġeq uation
Ġ Skill
Ġ Bio
g ement
Ġ Snap
Ġ Legal
Ġtrad emark
Ġmake up
Ġ assembled
Ġs aves
ĠH alloween
ĠVer mont
ĠF ROM
Ġf arming
ĠP odcast
accept able
Ġ Higher
Ġa sleep
ull ivan
Ġref eren
Ġ Lev
Ġbul lets
o ko
H C
Ġ stairs
Ġmain tains
Ġ Lower
Ġ Vi
Ġ marine
Ġac res
Ġcoord inator
ĠJ oh
Ġcounter parts
ĠBrother s
Ġin dict
b ra
Ġch unk
Ġc ents
H ome
Ġ Month
Ġaccord ingly
if les
ĠGer mans
Ġ Syn
H ub
Ġey eb
âĶĢâĶĢ âĶĢâĶĢ
Ġr anges
ĠHol land
ĠRo bot
f c
M ike
Ġpl asma
Ġsw ap
Ġath lete
ĠR ams
, '"
Ġinfect ions
Ġcor rid
Ġv ib
Ġp atches
Ġtrad itionally
Ġreve lation
Ġswe ep
Ġg lance
Ġi nex
2 003
Ġ Raw
work ing
os ures
Ġ Dat
ĠLyn ch
Ġle verage
ĠRe id
Ġcor relation
i ances
av ascript
Ġrep ository
re tty
Ġ 1972
2 40
Ġ oun
p ol
ĠR eed
Ġtac tical
i site
Ap ple
ĠQu inn
Ġ raped
i llo
Euro pe
Ġalgorith ms
ĠRod rig
i u
Ġill um
Ġf ame
Ġintrodu cing
Ġdel ays
ĠRa iders
Ġwh istle
Ġnovel s
Ġ Really
Ġde riv
Ġpublic ations
Ġ Neither
Ġ Commerce
Ġ aston
l anguage
N otes
ĠR oth
Ġ Fear
Ġ mate
Ġpa rade
Ġ QB
Ġman eu
ĠC incinnati
m itting
Ġwa ist
Ġ Rew
Ġdis cont
Ð °
Ġst aring
Ġ alias
Ġsec urities
Ġto ilet
ĠJ edi
Ġun law
v ised
//// ////
] (
Ġ Weiss
Ġp rest
Ġ Compan
Ġm emo
ĠG race
J uly
ĠE lite
c enter
Ġ Stay
Ġgal axy
Ġt ooth
Ġ Settings
Ġsub jected
ãĤ ¦
Ġline back
Ġretail ers
Ġ Want
Ġd angers
A ir
Ġvol untary
e way
Ġinterpre ted
ot ine
Ã §
Ġ pel
Ser vice
Ġ Eventually
Ġcar eers
Ġthreat en
Ġme mor
ĠBrad ley
an cies
s n
Ġ Unknown
N ational
Ġsh adows
a iland
Ġ Dash
Every one
izz ard
M arch
= (
Ġpul ls
Ġstr anger
Ġback wards
ĠBer nard
im ensional
Ġ chron
Ġtheoret ical
k top
Ġ ware
ĠInvest ig
ĠIn iti
ĠOper ations
o ven
oc ide
* /
Ġfl ames
Ġ Cash
s hit
Ġc ab
Ġ Analy
ĠS eah
Ġdef ining
Ġ ordering
Ġim mun
Ġpers istent
A CH
R ussian
m ans
Ġh ind
Ġphot ography
Â ©
Ġh ug
Ġ 107
ĠH ence
i ots
ude au
Ġsubsid ies
Ġroutine ly
Ġ Device
i tic
Ġdisg ust
l ander
Ġ1 940
Ġass ignment
Ġ Besides
w ick
Ġ Dust
u sc
struct ed
1 11
de velop
Ġf ond
Ġinter section
Ġdign ity
Ġcommission er
With out
r each
Ġcart oon
Ġsc ales
ãĥ Ń
F IG
Ġsurve ys
ĠIndo nesia
Ġart work
Ġ unch
Ġcy cling
un ct
a uer
o rate
Ġ Obviously
Ġcharacter ized
fe ld
Ġaff irm
Ġin nings
Ġ é
Ġal iens
Ġ cloth
et ooth
Ġ Certain
Â §
Ġdi gest
k now
Ġ XL
Ġpred ictions
Ġ din
W AR
Ġafter math
Ex ample
Ġ Success
ĠT hr
I GN
Ġm iner
B us
Ġcl arity
he imer
Ġ OUT
Ġ Send
ĠCir cle
ĠD iet
Ġpron ounced
Ġcre ators
Ġearthqu ake
at tery
ge ons
Ġ od
Ġl aying
or p
U lt
pro ject
Ġunder min
Ġse quel
S am
ĠDark ness
Ġre ception
b ull
Y S
ĠV ir
Ġsequ ences
Ġ Coin
Ġout fit
Ġ Wait
1 19
Ġdel ivers
. .....
Ġ blown
Ġ Esc
Ġ Math
p erm
Ġ Ul
Ġg lim
Ġf acial
Ġgreen house
Ġto kens
/ -
ĠAnn ual
Ġ ONE
Ġteen age
Ġ Physical
ĠL ang
ĠC elt
Ġs ued
ivid ually
Ġpat ience
c hair
reg ular
Ġ aug
i nv
ex cept
ĠL il
Ġn est
f d
s um
ĠCh ase
R ussia
Ġ Jennifer
Ġoff season
Over all
F ore
Ġ riot
A ud
for mer
Ġdef enders
Ġ CT
i otic
r ibly
Ġautom ated
Ġpe nis
Ġins ist
Ġdi agram
Ġ SQL
ĠG arc
Ġ witch
cl ient
ier ra
am bers
Ġre count
f ar
V ery
oster one
Ġappreci ated
Ġ Perfect
S ection
Ġd oses
oca ust
Ġcost ly
Ġg rams
ĠS hi
Ġw restling
Ġ 1971
Ġtr ophy
Ġn erve
ĠK az
Ġ Experience
Ġp ledged
Ġplay back
Ġcre ativity
b ye
Ġatt ackers
Ġ holders
Ġ Coach
ĠPh D
Ġtransf ers
Ġ colored
ĠH indu
Ġd rown
Ġlist ened
Ġ WA
i asm
P O
Ġapp ealing
Ġdis closed
Ġ Chicken
a gging
Ġple aded
Ġnav igation
Ġ Returns
Ġ [[
R OR
E A
Ġphot ographer
ĠR ider
i ppers
Ġ slice
Ġe rect
Ġ hed
iss ance
ĠVik ings
u rious
Ġap pet
oubt edly
Ch ild
Ġauthent ic
o os
Ġ Making
Ġann ouncing
Ġb od
Ġ meter
Ġ Nine
Ġ Rogue
Ġwork force
Ġrenew ed
Ġorgan isations
a cs
P LE
Sh ort
Ġcomp ounds
Ġ Visit
Ġen velop
e arth
Ġsupport ive
gg le
ĠBrus sels
ĠG uild
Cre ate
R EL
Ġaver aged
Ġ 1969
ri ages
Ġleng thy
Ġfor got
O kay
ĠE rd
Ġde aler
Ġre cession
D D
Ġdesper ately
Ġhun ger
Ġ sticks
Ġ mph
Ġ Faith
Ġintention ally
Ġde mol
u eller
ĠS ale
Ġde bris
s pring
Ġle ap
> >>>
Ġcont ainers
s elling
ran ean
at tering
Ġcom mented
Ġ CM
o nut
Ġ woods
es pecially
Ġorgan ize
i vic
ĠWo ods
an ga
s qu
Ġm aj
a mon
Ġ axis
Ġ 1974
ĠDen mark
Ġwar rior
Ġ Pand
Ġout lined
Ġ BO
ins ula
z illa
e book
Ġd are
Ġsear ched
Ġnav igate
S n
wr iting
Ġ united
J apan
ĠHe brew
Ġ flame
Ġre lies
Ġ catching
ĠS ho
Ġimprison ment
Ġp ockets
Ġ closure
ĠF am
t im
ad equ
Act ivity
Ġrecru iting
Ġ WATCH
ĠArgent ina
d est
Ġapolog ize
o ro
Ġl acks
Ġt uned
ĠGr iffin
Ġin famous
Ġceleb rity
s son
Ġ ----------------------------------------------------------------
ĠI sis
Ġ Display
Ġcred ibility
Ġeconom ies
Ġhead line
ĠCow boys
Ġin def
Ġl ately
Ġincent ives
b utton
Ġ Mob
A ut
Ġre signed
ĠO m
c amp
Ġpro files
Ġsche mes
olph ins
ay ed
Cl inton
en h
ĠY ahoo
Ġab st
Ġ ank
s uits
Ġw ished
Ġ Marco
u dden
Ġsp here
ĠB ishop
Ġinc orporated
ĠPl ant
1 14
Ġh ated
p ic
Ġdon ate
Ġ lined
Ġ beans
Ġst ealing
Ġcost ume
Ġsher iff
Ġfor ty
Ġint act
Ġadapt ed
Ġtrave lling
b art
Ġnice ly
Ġd ried
Ġs cal
os ity
N OTE
ĠB h
ĠBron cos
Ġ Ign
Ġint imate
Ġchem istry
Ġopt imal
D eb
ĠGene ration
Ġ ],
i chi
ĠW ii
ĠY OUR
ven tions
W rite
Ġpop ul
un ning
ĠW or
V ol
Ġqu een
he ads
K K
Ġanaly ze
o pic
ear chers
Ġ dot
le graph
ast ically
Ġup grades
Ġc ares
Ġext ending
Ġfree ze
Ġin ability
Ġor gans
Ġpret end
Ġout let
1 13
o lan
ĠM all
u ling
t alk
Ġexp ressing
Ġ Always
Ġ Begin
f iles
Ġlic enses
% %
ĠM itt
Ġfil ters
ĠMil waukee
G N
Ġun fold
M o
Ġ nutrition
p po
B o
Ġf ounding
Ġunder mine
Ġeas iest
ĠC zech
ĠM ack
Ġsex uality
ĠN ixon
W in
ĠA rn
Ġ Kin
ãĤ £
i cer
Ġf ortun
Ġsur faces
ag hd
Ġcar riers
Ġ PART
ĠT ib
Ġinter val
Ġfrust rating
Ġ Ship
ĠAr med
f fe
Ġ boats
ĠAb raham
i nis
Ġsu ited
th read
i ov
a bul
ĠVenezuel a
Ġ tom
s uper
Ġ castle
al though
i oxide
e ches
Ġevolution ary
Ġnegoti ate
Ġconfront ed
Re member
Ġ 170
S uch
Ġ 911
m ult
Ġ Abyss
ur ry
k ees
s pec
ĠBar bara
Ġbelong ing
Ġvil lain
ist ani
Ġaccount able
Ġpor tions
Ġ Decl
U r
Ġ Kate
g re
Ġmag azines
UC K
Ġreg ulate
o mon
Ġ Almost
Ġover view
Ġsc ram
Ġl oot
ĠF itz
Ġcharacter istic
Ġ Snake
s ay
ĠR ico
Ġt rait
Ġ Joined
au cus
Ġadapt ation
ĠAir lines
Ġarch ae
Ġ Ide
Ġb ikes
Ġliter ary
Ġinflu ences
Ġ Used
C reat
Ġpl ea
ĠDef ence
ĠAss ass
Ġp ond
U LT
) "
Ġeval uated
Ġob taining
Ġdem ographic
Ġv igil
a ley
Ġsp ouse
ĠSea hawks
re spons
ĠB elt
u matic
Ġ rises
run ner
Ġ Michelle
Ġp otent
r ace
Ġ PAC
F ind
olester ol
I SS
Ġ Introduced
r esses
ign ment
O s
Ġ Tu
Ġ Dex
ic ides
Ġspar ked
Ġ Laura
ĠBry ant
Ġsm iling
ĠNe xus
Ġdef endants
Ġ Catal
Ġd ishes
sh aped
Ġpro long
m t
( $
ãĢ Ĥ
Ġcalc ulations
Ġ Same
Ġp iv
H H
Ġcance lled
Ġg rin
Ġterrit ories
ist ically
C ome
Ġ Parent
Pro ject
Ġneg lig
Ġ Privacy
Ġam mo
L ECT
olute ly
ĠE pic
Ġmis under
w al
Ap ril
m os
p athy
ĠC arson
Ġalbum s
Ġ Easy
Ġpist ol
< <
Ġ\ (
t arget
he lp
Ġinter pre
cons cious
ĠH ousing
ĠJ oint
1 27
Ġb eers
s cience
ĠFire fox
eff ective
ĠC abin
Ġ Okay
Ġ Applic
Ġspace craft
Ġ SR
v et
Ġ Strange
S B
Ġcor ps
ib eral
e fficient
Ġpreval ence
Ġeconom ists
1 18
Th read
ord able
O DE
ĠC ant
=- =-
if iable
Ġ Around
Ġ pole
Ġwilling ness
C LA
Ġ Kid
Ġcom plement
Ġsc attered
Ġin mates
Ġble eding
e very
Ġ queue
Ġ Train
Ġh ij
Ġme lee
p leted
Ġ digit
Ġ gem
off icial
Ġ lifting
Ð µ
R equ
it utes
Ġpack aging
ĠWor kers
h ran
ĠLeban on
ol esc
Ġpun ished
ĠJ uan
Ġ jam
Ġ Document
Ġm apping
ic ates
Ġinev itably
Ġvan illa
Ġ Ton
Ġw atches
Ġle agues
Ġinit iated
deg ree
p ortion
Ġrec alls
Ġr uin
Ġm elt
I AN
Ġ hem
E xp
Ġb aking
ĠCol omb
at ible
Ġ radius
pl ug
Ġ IF
et ically
Ġf ict
H ER
Ġ Tap
ati num
Ġ ink
Ġc oh
ĠW izard
b oth
t ex
Ġsp ends
Ġ Currently
ĠP it
Ġneur ons
ig nt
Ġr all
Ġb uses
b uilding
Ġadjust ments
Ġc ried
ibl ical
a tted
ĠZ ion
ĠM atter
Ġmed itation
ĠD ennis
Ġ ours
Ġ Tab
Ġrank ings
or tal
Ġad vers
Ġsur render
ĠG ob
c ium
o mas
i meter
Ġmulti player
Ġher oin
Ġoptim istic
Ġind icator
ĠB rig
Ġgro cery
Ġapplic ant
Ġ Rocket
v id
Ex ception
p ent
Ġorgan izing
Ġenc ounters
ĠT OD
Ġjew el
S ave
ĠChris tie
Ġh eating
Ġl azy
Ġ CP
Ġcou sin
Con fig
Ġre gener
Ġne arest
Ġachie ving
E NS
th row
ĠRich mond
an tle
2 002
Ġan ten
b ird
1 33
Ġn arc
r aint
un ny
Ġ Hispanic
ourn aments
Ġp rophe
ĠTh ailand
Ġ Ti
Ġin jection
Ġinher it
r avis
Ġ medi
Ġwho ever
Ġ DEBUG
G P
ĠH ud
C ard
p rom
Ġ por
Ġover head
L aw
Ġvi olate
Ġhe ated
Ġdes criptions
Ġachieve ments
Ġ Beer
Ġ Quant
W as
Ġe ighth
Ġ Iv
Ġspecial ized
U PDATE
Ġ Delta
P op
J ul
Ġ Ask
o phy
Ġnews letters
Ġ Tool
Ġ gard
ĠConf eder
Ġ GMT
ĠAb bott
Ġimm unity
Ġ VM
Is lam
Ġimpl icit
w d
Ġ19 44
ra vity
om etric
Ġsurv iving
ur ai
ĠP rison
Ġ rust
ĠSk etch
Ġ bees
ĠThe ory
Ġme rit
T ex
c hat
Ġm im
Ġ paste
ĠK och
Ġignor ance
ĠSh oot
Ġbas ement
Un ited
ĠAd vis
h eight
Ġf oster
Ġde tain
in formation
Ġne ural
' ;
Ġpr oves
all ery
Ġinv itation
um bers
Ġc attle
Ġb icycle
z i
Ġconsult ant
Ġap ology
ĠT iger
Ġ 123
9 99
Ġind ividually
r t
ig ion
ĠBraz ilian
Ġdist urb
Ġentreprene urs
Ġfor ests
cer pt
pl ates
p her
cli pse
Ġ twitter
Ġac ids
ograph ical
h um
ĠB ald
i fully
Ġcomp iler
Ġ DA
Ġdo nor
a si
Ġtr ibal
l ash
Ġ Config
Ġapplic ants
Ġsal aries
1 35
Put in
Ġ Focus
i rs
Ġmis conduct
ĠH az
Ġe aten
M obile
Mus lim
Ġ Marcus
v iol
Ġf avorable
Ġs tub
a din
ĠH ob
Ġfaith ful
Ġelect ronics
Ġvac uum
w ait
b acked
ec onomic
d ist
Ġten ure
Ġsince re
Ġ Together
Ġ Wave
Ġpro gression
Ġden ying
Ġdi stress
br aska
th ird
Ġmix ing
Ġ colonial
Ġpriv ately
Ġun rest
a ternity
Ġprem ises
an ti
g regation
Ġli cence
ĠH ind
ĠSam uel
Ġconvin cing
ĠA ce
Ġ Rust
ĠNet anyahu
Ġhand les
Ġ Patch
ori ented
a ho
ĠG onz
Ġh ackers
claim er
Ġcust oms
ĠG ran
f ighters
Ġl uc
Ġman uscript
aren thood
Ġd evil
Ġwar riors
Ġoff enders
Wil liam
Ġhol idays
Ġnight mare
Ġl ever
iff erent
St at
Ġex hibition
p uted
Ġ Pure
Ġ alpha
Ġenthus iasm
ĠRepresent atives
E AR
Ġ Typ
Ġw heat
ĠA lf
Ġcor rection
Ġev angel
A TT
M iss
Ġs oup
Ġimp lied
p aram
Ġse xy
ĠL ux
Ġre public
p atch
ab lish
Ġ icons
Ġfat hers
Ġ GET
ĠCa rib
Ġ regulated
ĠCo hen
ĠB obby
Ġ ner
Ġ bent
vent ory
Ġ Along
Ġ EST
ĠWal lace
Ġmurd ers
r ise
k ell
ĠCommon wealth
Ġn asty
e ta
Ġ MIT
Ġadmin istered
Ġgenuine ly
Ed itor
n ick
Ġhy dro
**************** ****************
Ġ Ble
Ġf ines
Ġg orge
aus ible
r h
Ġ apple
ment ioned
Ġr ope
o typ
H R
Ġdisappoint ing
Ġc age
n ik
Ġdoub ts
Ġ FREE
pr ints
ĠM UST
Ġvend ors
ĠIn qu
Ġliber als
Ġcont ractor
Ġup side
child ren
Ġtr icky
Ġreg ulators
char ged
l iter
Ġ ***
Ġre bell
l ang
Ġloc als
Ġphys icians
Ġ hey
ar se
t m
Ġ Lex
Ġbehavi oral
success ful
F X
Ġb rick
o vic
Ġcon form
Ġreview ing
Ġins ights
Ġ biology
Ġ Remove
Ġ Extra
Ġcom mitting
ind uced
ign ty
i gm
Ġ atomic
Com mon
Ġ EM
ĠP ere
Ġ Items
e h
Ġpre served
ĠH ood
Ġprison er
Ġbankrupt cy
Ġ gren
us hes
Ġexplo itation
Ġsign atures
Ġfi nan
] ,"
Ġ MR
Ġ meg
rem lin
Ġmus icians
Ġselect ing
Ġexam ining
I NK
l ated
H i
Ġar tic
Ġp ets
Ġim pair
Ġ MAN
Ġtab lets
in clude
R ange
Ġc aut
Ġl ogs
Ġmount ing
Ġun aware
Ġdynam ics
ĠPal estine
ĠQu arter
ĠPur ple
Ġ ma
Ġ Import
Ġcol lections
c iation
Ġsucc essor
Ġ clone
Ġaim ing
Ġposs essed
Ġst icking
Ġsh aking
Ġl ocate
ĠH ockey
T urn
1 70
Ġfif teen
ĠH arrison
Ġcontin uously
Ġ TC
ĠVal ent
ĠRes cue
Ġby pass
a mount
Ġ mast
Ġprotect s
Ġart istic
Ġs ometime
Ġs hoe
Ġsh outed
ific ant
et itive
Ġ Register
ĠJ in
Ġconcent rated
l ington
on ies
Ġgene rator
y rim
ĠAr men
Ġcl earing
i do
Ġ TW
al ph
Ġl adies
H ard
Ġdi alog
Ġinput s
æ ľ
Ġ poses
Ġsl ots
Ġ Premium
Ġle aks
Ġbos ses
Ġ 113
c ourse
A cc
ĠNew ton
ĠAust ria
ĠM age
Ġte aches
a bad
Ġw ears
Ġ cyl
Ġc urse
Ġ Sales
ĠW ings
Ġ psy
Ġg aps
ĠIc eland
Ġ Pinterest
Ġland lord
Ġdef initions
ĠK er
Ġsufficient ly
ĠP ence
ĠArch itect
Ġsur pass
Ġ 114
Ġsuper hero
ĠDise ase
Ġpri ests
ĠC ulture
Ġdefin itive
Ġsecret ly
ĠD ance
in stall
ch ief
Ġ Jessica
W ould
Up dated
Ġl ocker
Ġ Kay
Ġmem orial
è ¦
f at
Ġdis gu
Ġflav ors
ĠBase ball
ĠRes istance
Ġk icks
Ġ env
Ġteen agers
D ark
Ġ CAR
Ġh alt
Ġ LG
ĠGab riel
Ġf ever
Ġs atur
Ġm all
Ġaff iliate
Ġ Sleep
Ġ Specific
Ġ Vel
Ġ jar
ĠSac red
ĠEd wards
ĠA CL
Ġre tained
ĠG iant
Ġlim itation
i nces
Ġref usal
ĠT ale
ĠBut ler
Ġacc idents
Ġ CSS
Ġim ported
Ġ Copy
Î ±
E RT
z el
Ġdiv isions
h ots
ĠA lb
Ġ DS
Lo ader
W ashington
at isf
ĠCre ative
\ .
Ġ Autom
re dict
Ġre ceptor
ĠCar los
Met hod
o ka
Ġmal icious
Ġste pping
, [
Ġ Dad
Ġatt raction
Ġ Effects
ĠPi rate
ĠC er
ĠIndust ry
ĠR ud
Ġch arter
Ġd ining
Ġins ists
Ġcon figure
Ġ( #
Ġ Simple
Ġ Scroll
U TC
1 75
ĠK on
Ġmarket place
Ġ ãĤ
Ġref res
Ġg ates
er red
Ġ Pod
Ġbe have
F rank
n ode
Ġendors ed
h ett
as ive
ĠHom eland
Ġr ides
Ġ Leave
er ness
Ġflo oding
A FP
Ġr isen
Ġcontin ually
Ġun anim
Ġ Contract
ĠP as
Ġ guided
ĠCh ile
b d
Ġs ucc
p tic
Ġcomm ittees
ĠL uther
Ġ Anyone
Ġs ab
1 24
Ġ pixel
ĠB ak
Ġ Tag
ĠB ennett
En ter
sm all
ĠPres idential
Ġp ul
Ġcon trace
arch ive
Ġcoast al
Ġ Kids
1 92
âĢ ²
ic ky
ING TON
Ġ wolf
ĠSt alin
T ur
id get
a mas
Ġ Unless
Ġspons or
Ġ morph
Ġ Choose
Ġ runner
Ġun bel
Ġ mud
ĠM ana
Ġdub bed
Ġg odd
u rers
wind ow
Ġre lied
Ġceleb rating
o sc
Ġ 135
Ġlobb ying
Ġin complete
Ġrest riction
Ġin cap
it us
Ġexpect ation
ĠAp ollo
Ġint ens
Ġ sync
G H
Ġmanip ulation
B Y
Ġsp ear
Ġbre asts
Ġvol can
i lia
M aterial
Ġform ats
ĠB ast
Ġparliament ary
Ġsn ake
Ġserv ants
ĠTr udeau
ĠG rim
ĠArab ic
Ġ SCP
ĠB oys
st ation
Ġpro spective
or de
in itialized
Ġb ored
A BLE
Ġacc essed
Ġta xi
Ġ Shell
a iden
ur sed
in ates
ĠIns urance
ĠP ete
Sept ember
6 50
Ġad ventures
Ġ Cover
Ġt ribute
Ġsk etch
Ġem power
Ġ Ø
ĠGl enn
ĠD aw
= \"
Ġ Politics
Ġgu ides
Ġd ioxide
ĠG ore
Ġ Bright
ĠS ierra
Ġ valued
c ond
Ġ pointer
S elect
Ġr isky
Ġabs orb
im ages
Ġref uses
Ġbon uses
_ __
Ġh ilar
Ġ Features
2 20
ĠColl ector
F oot
Ġ 1964
c ulus
Ġd awn
Ġwork out
Ġ LO
Ġphilos ophical
ĠS andy
ĠY outh
Ġl iable
A f
bl ue
Ġover turn
less ness
ĠT ribune
Ġ Ing
Ġfact ories
Ġc atches
Ġ prone
Ġmat rix
Ġ login
Ġin acc
Ġex ert
s ys
Ġneed le
ĠQ ur
Ġnot ified
ou lder
t x
Ġremind s
Ġpublish ers
Ġn ort
Ġ git
Ġ flies
Ġ Emily
Ġfl owing
Ġ Alien
ĠStr ateg
Ġhar dest
Ġmod ification
A PI
Ġ MY
Ġcr ashes
st airs
n umber
Ġur ging
ch annel
ĠFal con
Ġinhabit ants
Ġterr ifying
Ġutil ize
Ġban ner
Ġ cigarettes
Ġs enses
ĠHol mes
Ġpract ition
ĠPhill ips
o tto
Ġcomp ile
Mo del
Ġ Ko
Ġ []
Americ ans
ĠTer ms
Ġmed ications
ĠA na
Ġfundament ally
Ġ Notice
Ġwe aker
Ġ 0000
Ġgar lic
Ġout break
Ġeconom ist
Ġ Birth
Ġobst acles
ar cer
ĠOr thodox
Ġplace bo
Ġ Crew
asp berry
ĠAng els
Ġdis charge
Ġdestruct ive
1 17
ĠR ising
Ġd airy
l ate
Ġcoll ision
ĠT igers
ea nor
ocument ed
Ġ Invalid
Ġd ont
Ġ Liter
Ġ Va
Ġhyd rogen
Ġvar iants
ĠBrow ns
Ġ 1965
Ġind igenous
Ġtr ades
Ġremain der
Ġsw ept
ĠImp act
Ġre dist
Ġun int
grad uate
ãĥ ķ
ĠW ILL
ãģ® ç
Ġ Critical
Ġf isher
Ġv icious
Ġrev ersed
Y ear
ĠS ox
Ġshoot ings
Ġfil ming
Ġtouch downs
a ires
m el
Ġgrand father
Ġaff ection
ing le
Ġover ly
Add itional
Ġsup reme
Ġ Grad
Ġs porting
Ġmer cy
ĠBr ooks
oun ty
Ġper forms
Ġtight ly
Ġde mons
Ġkil lings
Ġf action
ĠN ova
a uts
Ġund oubtedly
a rin
Ġunder way
r ak
Ġ liv
Ġ Region
Ġbrief ing
s ers
cl oud
ĠM ik
u sp
Ġpred iction
az or
Ġpor table
ĠG and
Ġpres enting
Ġ 1080
Â »
u shi
ĠS park
there um
Ġjust ification
ĠN y
Ġcontra ctors
m ingham
Ġ Style
å ħ
ĠChron icles
Ġ Picture
Ġpr oving
Ġ wives
s ett
Ġmole cules
ĠF airy
Ġcons isting
Ġp ier
al one
in ition
Ġn ucle
j son
Ġg otta
Ġm obil
Ġ verbal
a rium
Ġmon ument
uc ked
Ġ 256
T ech
mine craft
Ġ Track
Ġ tile
Ġcomp atibility
a sis
Ġs add
Ġin structed
ĠM ueller
Ġ lethal
Ġhor mone
Ġor che
el se
Ġske let
Ġenter taining
Ġmin imize
a gain
Ġunder go
Ġconst raints
Ġ cigarette
ĠIslam ist
Ġtrave ls
ĠPant hers
l ings
C are
Ġlaw suits
u ras
Ġcry st
Ġl owered
Ġa erial
Ġcomb inations
Ġh aun
Ġ cha
Ġ vine
Ġquant ities
Ġl inking
b ank
Ġs oy
B ill
ĠAng ela
Ġrec ipient
ĠPro test
Ġ socket
Ġsolid arity
Ġ âĨ
m ill
Ġv aries
ĠPak istani
D ragon
Ġ une
Ġhor izon
ÂłÂłÂłÂł ÂłÂłÂłÂł
Ġprov inces
Ġfrank ly
Ġen acted
n otes
[ '
Ġ 192
ocr acy
Ġendors ement
Ġover time
T rue
L ab
l icted
ĠD NC
Ġbe ats
Ġ Jamie
1 52
Ġ INT
Cont act
Ġaccount ed
h ash
ĠP ackers
p ires
Ġles bian
Ġamend ments
Ġhop eful
ĠFin land
Ġspot light
Ġcon figured
Ġtrou bled
Ġg aze
ĠCal gary
Ġrel iability
Ġins urg
s wer
b uy
Ġ Skin
Ġp ixels
Ġhand gun
Ġpa ras
Ġc ategor
Ġ EL
Ġ Rex
Ind eed
Ġk inda
Ġconj unction
ĠB ryan
Ġ Manufact
y ang
P lus
S QL
ish ment
Ġdom inate
Ġn ail
Ġo ath
Ġe rupt
Ġ Fine
it bart
Ġ Chip
ĠA bd
ĠN am
Ġbu yer
Ġdis sent
Le aks
Con tin
Ġ rider
Ġ Someone
Ġ illusion
c in
ĠBoe ing
Ġin adequ
o vation
i ants
Ġre build
4 50
ĠDes tiny
S W
ĠT ill
H it
i az
ĠBan gl
a chers
ĠRe form
Ġse gments
Ġsystem atic
d c
ĠCons ervatives
Ġp ortal
h or
ĠDragon bound
Ġdr agged
o mo
Ġt hee
ad vert
Ġ Reports
ĠE t
Ġbarr els
Aug ust
Ġcompar isons
Ġ hex
Ġ anthrop
" [
b orough
a bi
Ġ pictured
pl aying
Ġ Address
ĠMir ror
S mith
Ġt ires
Ġ NPR
A AAA
Ġclass ification
ĠT han
ĠH arm
Ġ RA
Ġre jection
m ination
Ġ ranged
ĠF alls
D I
H ost
ãĤ ´
Ġ Example
l isted
th irds
Ġsaf egu
b rand
Ġpro bable
Can ada
I TION
Ġ Qaeda
Ġch ick
Ġim ports
h it
l oc
W W
Ġbl ew
Ġany time
Ġw holes
i ked
Ġcal culation
cre ate
ĠO ri
Ġup graded
Ġap par
ut ory
ĠM ol
B rit
ĠJ ong
IN AL
Ġ Starting
Ġd ice
ur tle
Ġre lying
cl osure
Ġprof itable
Ġs laughter
ĠMan ual
c aster
Ġ" $
Ġfe ather
Ġ Simply
ie ves
Ġde terior
ĠP CI
Ġst amp
Ġf laws
Ġsh ade
ham mer
Ġpass port
Ġcon ting
a mel
Ġobser vers
Ġneg lect
Ġ RB
ĠBrother hood
Ġskept ical
f amily
u sk
Ġemotion ally
â Ļ
Ġ Beta
ason able
id ity
ĠM ul
Ġk icking
ĠC arm
o llah
VERT IS
ĠA then
Ġl adder
ĠBul let
å £
0 001
ĠWild life
Ġ Mask
ĠN an
R ev
Ġun acceptable
l egal
Ġcrow ded
a gi
ĠC ox
j e
Ġmor ality
Ġfu els
Ġc ables
Ġm ankind
ĠCarib bean
Ġanch or
Ġ byte
Ġ Often
ĠO z
Ġ crafted
Ġhist orian
ĠW u
Ġt owers
ĠC itizens
Ġ helm
Ġcred entials
Ġsing ular
ĠJ esse
Ġtack les
Ġcont empt
Ġa fore
ĠSh adows
Ġ nil
Ġur gent
ap ple
bl ood
Ġ von
Ġoff line
Ġbre athe
Ġj umps
Ġir relevant
ox ic
o mal
import ant
J im
Ġgl oves
ar ming
dep th
Ġtal ents
oo kie
Ġ SB
Ġp alm
uf fs
e sta
I GH
Ġ canon
ĠVer izon
ĠP le
Ġcou pled
v elt
Ġfund raising
Ġ Getting
ĠD LC
Ġmathemat ical
Ġ HS
ĠCard inals
t elling
Ġspons ors
Ġ Ï
ĠBul ls
o ption
Ġpro pose
Ġmem orable
Ġembr aced
Ġdec lining
He alth
e da
Ġ };
Ġsp am
m ile
Ġp itcher
Ġ Eight
Ġc aring
u tic
r ole
Ġair line
ernand ez
ĠAth let
Ġcert ification
u xe
r iger
Ġem pir
Ġs ensation
Ġd ism
Ġ bolt
Ġev olve
H ouse
Ġconsult ation
ĠD uty
Ġtou ches
ĠN athan
Ġf aint
h ad
" (
Ġ Consumer
Ġ Extreme
Ġ 127
Ġ Herm
ĠSac rament
iz oph
Ġan xious
ul ously
Ġso cially
Ġ UTC
Ġs olving
Ġ Letter
Hi story
e duc
P rice
) );
Ġre load
a mic
Ġp ork
Ġdis course
Ġt ournaments
a iro
ĠK ur
ĠC osta
Ġviol ating
Ġinterf ere
Ġrecre ational
uf fle
Ġspe eches
Ġne eding
Ġre members
Ġc redited
n ia
f ocused
am era
Ġb ru
um bs
ĠCu ban
Ġprec eding
Ġn onsense
a cial
Ġsmart phones
ĠSt ories
S ports
Ġ Emergency
oun cing
ef ined
Ġ ber
Ġconsult ing
Ġ masters
he astern
. "[
Ġ Running
Ġsus cept
ĠF eng
Americ a
p rises
st itial
ĠWeek ly
ĠGre ater
mod ules
i fter
G raphics
u ler
Ġwh olly
Ġsup press
Ġconce aled
Ġhapp ily
Ġaccept s
Ġ Enjoy
Ġr ivers
Ġ Except
2 25
ĠN HS
ĠMc Connell
Ġp ussy
f erred
u table
Ġat tain
Ġ> =
Ġdepos its
roph ic
Ġnot orious
ĠS haw
il itation
Ġepid emic
al lic
Ġsmall est
o vich
Ġaccess ories
per ties
Ġsur plus
Ġ Mech
Ġam big
ĠImm igration
Ġc him
e val
Ġpract icing
ĠMy stery
Ġdom ains
ĠSil icon
a pps
Ġkil ometers
e a
ĠSm ash
Ġwarr anty
Ġn ost
s il
r ev
J on
ĠDub lin
Ġtast es
Ġb out
g reat
er ror
Ġsw itches
ĠB apt
D O
o ki
Ġs ourced
p rodu
Ġatt achment
Ġ Issue
Ġ Question
J oin
Ġ fitted
Ġunlaw ful
^ ^
e rek
Ġauthent ication
Ġst ole
Ġaccount ability
l abel
S earch
Ġ albeit
at ican
fun ded
Ġ Adding
Ġ IQ
Ġsub mar
l it
a que
Ġ Learning
Ġ integer
M aster
ĠCh rom
Ġprem ier
O p
ĠL iu
Ġbl essed
ĠGl obe
Ġ Response
Ġlegit im
ĠMer kel
Ġdis posal
Â ´
Ġga uge
p eat
Ġ induced
Ġquestion able
ar thy
ĠV it
Ġ Feed
U ntil
U t
w orthy
R Y
ĠH erald
ĠHam mer
Ġme dal
ĠR ivers
Ġ Hack
Ġclar ify
Ġtr acked
Ġaut onomous
Ġte nant
ĠQ atar
e rie
Ġ grim
Ġ Monitor
Ġ resistant
Ġ Spec
ĠW ells
N AS
1 48
Ġm iners
i otics
Ġmis ses
1 16
g ian
g it
ĠE yes
p res
Ġgrad uated
Ġ angel
Ġs ynchron
Ġefficient ly
Ġtrans mitted
H arry
Ġglob ally
EN CE
ĠMont ana
r aged
ĠPre vention
Ġp iss
ĠL l
Ġsh elf
ĠB JP
ĠTest ament
Ġ Late
i ker
ĠH app
ĠJul ian
h all
Ġsp ont
Ġshut down
Ġincons istent
Ġsubscrib ers
Ġs keleton
ĠNe braska
Ġins pire
ĠV oid
F eed
Ġ angles
ĠSp rings
Ġbench mark
Ġvacc ines
izoph ren
se xual
uf fed
Ġ shine
ĠK ath
Ġgest ure
i nea
Ġ rip
Ġopp ression
Ġcon science
b t
ĠL um
Ġinc idence
Ġ Fa
w r
Ġmin eral
ĠSp urs
al ky
Ġth under
Ġop io
Be ing
ĠP alm
Ġw asted
Ġ lb
i aries
ĠIniti ative
Ġcur ric
Ġmar ker
ĠMc L
Ġext ensions
ĠP v
ĠAr ms
Ġoffer ings
Ġdef enses
Ġv endor
Ġcontra dict
ĠC olin
Ġ reddit
Ġper ipher
1 22
Ġs ins
E dit
I CT
S oft
ĠSh ah
Ġadminist rator
ĠT rip
Ġporn ography
Ġtu ition
in ence
Ġ Progress
Ġcat alog
Ġsu ite
Ġh ike
Ġre productive
eng ine
Ġd rought
ĠNo ah
Ġ 230
Ġd ude
Ġrelax ed
Ġpart ition
Ġparticip ant
Ġtel esc
Ġf eas
Ġ FF
ow ner
Ġswe eping
Ġl enses
Ġmatch up
Ġ Repl
ourn als
Ġc redible
Ġgrand mother
Ġther mal
Ġsubsc ribing
Ġident ities
col m
U CT
Ġreluct ant
u sers
ĠC ort
Ġ assisted
O SS
AT IONS
I SH
Ġpharm aceutical
ic able
ad ian
ĠS onic
ĠF ury
ĠM ong
A H
ĠPsych ology
Ġph osph
Ġtre ats
Ń Ķ
Ġstead ily
Ġ Hello
Ġrel ates
Ġcl ue
Ex pl
a uth
Ġre vision
Ġe ld
os ion
Ġb ron
1 44
r ikes
Ġm ines
Ġblank et
Ġ Fail
e led
Ġ Imagine
ĠPl anned
a ic
Re quest
M ad
ĠH orse
ĠE agle
Ġca pac
1 57
Ġ ling
Ġ Nice
ĠP arenthood
min ster
o gs
ens itive
N othing
Ġc arn
F in
Ġ PE
Ġr ifles
Ġ LP
S and
Ġgui Active
Ġtou rist
C NN
Ġunve iled
Ġpredec essor
} {
u ber
Ġoff shore
Ġop tical
Ġ Rot
ĠPe arl
e ton
Ġst ared
Ġfar ther
at ility
con tin
Ġ Gy
ĠF oster
ĠC oc
r ients
Ġdes igning
ĠEc onomy
O NG
W omen
ĠN ancy
er ver
Ġmas cul
Ġcasual ties
Ġ 225
Ġ Sullivan
Ġ Choice
Ġ aster
w s
Ġhot els
Ġconsider ations
Ġc ouch
ĠS trip
ĠG n
Ġmanip ulate
l ied
Ġsynt hetic
Ġassault ed
Ġoff enses
ĠD rake
Ġim pe
Oct ober
ĠHer itage
h l
ĠBl air
Un like
Ġg rief
Ġ 450
Ġ opted
Ġresign ation
i lo
Ġ verse
ĠT omb
Ġ upt
Ġ aired
ĠH ook
ĠM LB
Ġass umes
o uted
Ġ Vers
Ġinfer ior
Ġb undle
ĠD NS
ograp her
Ġmul tip
ĠS ouls
Ġillust rated
Ġt actic
Ġd ressing
Ġd uo
Con f
Ġrel ent
Ġc ant
Ġscar ce
Ġc andy
Ġ CF
Ġ affiliated
Ġs print
y lan
ĠGar cia
Ġj unk
P rint
ex ec
C rit
Ġport rait
i ries
Ġ OFF
Ġdisp utes
W R
L ove
ãģ Ħ
ĠRe yn
Ġh ipp
o path
Ġflo ors
Ġ Feel
Ġwor ries
Ġsett lements
Ġ Pos
Ġmos que
Ġ finals
Ġcr ushed
Ġ Probably
Ġ Bot
ĠM ans
ĠPer iod
Ġsovere ignty
Ġ seller
Ġa post
Ġam ateur
Ġd orm
Ġ consuming
Ġarm our
ĠRo ose
Ġ intensive
Ġelim inating
ĠSun ni
ĠAle ppo
j in
Ġadv ise
p al
ĠH alo
Ġd escent
Ġsim pler
Ġb ooth
S TR
L ater
ĠC ave
= ==
Ġ mol
Ġf ist
Ġshot gun
s upp
Ġrob bery
E ffect
Ġobsc ure
Ġ Professional
Ġemb assy
Ġmil itant
Ġinc arcer
Ġgene rates
Ġlaun ches
Ġadminist rators
Ġsh aft
Ġcir cular
Ġfresh man
ĠW es
ĠJo el
ĠD rew
ĠDun can
Ġ Apparently
s ight
Ġ Internal
Ġ Individual
Ġ FE
Ġb ore
ĠM t
Ġbroad ly
Ġ Options
oun tain
i pes
ĠV ideos
2 04
Ġh ills
Ġsim ulation
Ġdisapp ointment
i tan
ĠLabor atory
Ġup ward
Ġbound ary
Ġdark er
h art
Ġdom inance
C ong
Ġ Oracle
ĠL ords
Ġscholar ship
ĠV incent
e de
Ġ Rah
Ġencour ages
r ov
Ġq uo
Ġprem ise
ĠC risis
ĠHol ocaust
Ġrh ythm
Ġm etric
cl ub
Ġtrans ported
Ġn od
ĠP ist
Ġancest ors
ĠFr eder
th umbnails
Ġ CE
O ND
Ph il
v enge
Ġ Products
cas tle
Ġqual ifying
ĠK aren
VERTIS EMENT
Ġm ighty
Ġexplan ations
Ġfix ing
D i
Ġdecl aring
Ġanonym ity
Ġ juven
ĠN ord
ĠD oom
Ġ Actually
O k
p his
ĠDes ert
Ġ 116
I K
Ġ FM
Ġin comes
V EL
o kers
Ġpe cul
Ġlight weight
g ue
Ġac cent
Ġincre ment
Ġ Chan
Ġcompl aining
ĠB aghd
Ġmidfield er
Ġover haul
Pro cess
ĠH ollow
ĠT itans
Sm all
man uel
Ġ Unity
Ġ Events
S ty
Ġdispro portion
n esty
e nes
Ġ Cod
Ġdemonstr ations
ĠCrim son
Ġ OH
Ġen rolled
Ġ cel
ĠB rett
Ġa ide
Ġhe els
Ġbroad band
Ġmar king
Ġw izard
Ġ NJ
ĠChief s
Ġingred ient
Ġd ug
Ġ Shut
urch ase
en dor
Ġfar mer
ĠGold man
1 29
1 55
Or der
Ġl ion
i ably
Ġs tain
ar ray
il itary
Ġ FAQ
Ġexpl oded
ĠMcC arthy
Ġ Tweet
ĠG reens
e king
l n
en sen
Ġmotor cycle
Ġp article
Ġch olesterol
B ron
Ġst air
Ġox id
Ġdes irable
i bles
Ġth eor
for cing
Ġprom otional
o vo
b oot
Ġ Bonus
raw ling
Ġshort age
Ġ Psy
Ġrecru ited
Ġinf ants
Ġtest osterone
Ġde duct
Ġdistinct ive
Ġfirm ware
b uilt
1 45
Ġexpl ored
Ġf actions
Ġv ide
Ġtatt oo
Ġfinan cially
Ġfat igue
Ġproceed ing
const itutional
Ġm iser
Ġ chairs
g ging
ip ple
Ġd ent
Ġdis reg
ç Ķ
st ant
l lo
b ps
ak ening
Ġab normal
Ġ ERA
å£ «
ĠH BO
Ġ MAR
Ġcon cess
Ġser vant
Ġa spir
l av
Ġ Panel
a mo
Ġprec ip
Ġrecord ings
Ġproceed ed
Ġcol ony
Ġ Tang
ab lo
Ġstr ipped
Le ft
t oo
Ġpot atoes
Ġfin est
% ).
Ġc rap
ĠZ ach
ab ases
ĠG oth
Ġbillion aire
w olf
Ġsan ction
S K
Ġl ogged
P o
ey ed
un al
Ġcr icket
Ġarm ies
Ġun covered
Cl oud
Ã³ n
Ġreb ounds
Ġ mes
O per
P ac
Ġn ationally
Ġinsert ed
p ict
Ġgovern ance
Ð ¸
Ġprivile ges
G ET
Ġfavor ites
im ity
Ġl over
t hem
em pl
Ġgorge ous
A nn
Ġsl ipped
Ġv eto
B ob
Ġs lim
u cc
ĠF ame
udden ly
Ġden ies
ĠM aur
Ġdist ances
Ġw anna
t ar
Ġ SER
Ġ âĪ
Ġl emon
at hetic
Ġlit eral
Ġdist inguished
Ġansw ering
G I
Ġrelig ions
ĠPhi los
Ġ Lay
Ġcom pos
ir ements
ĠK os
in ez
ro lling
Ġyoung est
and ise
Ġ Born
Ġal tar
am ina
Ġ Boot
v oc
Ġdi gging
Ġpress ures
Ġ len
2 64
Ġassass ination
ĠBir mingham
Ġ Myth
Ġsovere ign
Ġ Artist
ĠPhot ograph
Ġdep icted
Ġdisp ens
or thy
Ġam bul
int eg
Ġ Cele
ĠTi bet
Ġhier archy
Ġ cu
Ġpre season
ĠPe terson
Ġcol ours
Ġwor rying
Ġb ackers
ĠPal mer
Ġ Î¼
Ġcontribut or
Ġhear ings
Ġu rine
Ġ Ù
ourge ois
S imilar
ĠZ immer
s omething
ĠU SC
Ġstreng ths
Ġ FI
Ġl ogging
As ked
ĠT hai
in qu
ĠW alt
Ġcr ews
it ism
3 01
Ġshar ply
u med
Ġre direct
r ators
In f
Ġ Weapons
Ġte asp
1 999
L ive
Ġ Especially
ĠS ter
ĠVeter ans
Ġin tro
other apy
Ġmal ware
Ġ breeding
Ġmole cular
Ġ Route
Ġ Comment
o chem
Ġ ain
Se ason
Ġline backer
Ä «
ĠEconom ics
es ar
ĠL ives
ĠE mma
Ġ kin
ĠTer rit
Ġpl anted
o ton
ĠB utter
Ġ Spons
P ER
Ġdun geon
Ġsymb olic
Ġfil med
Ġd iets
Ġcon cludes
Ġcertain ty
Ġ Format
Ġstr angers
for mat
Ġ Phase
Ġcop ied
Ġmet res
l da
Ġ Users
Ġdeliber ate
Ġ washed
ĠL ance
im ation
Ġimpro per
ĠGen esis
ic kr
ĠK ush
Ġreal ise
Ġembarrass ing
al king
b ucks
Ġ verified
Ġout line
y ears
ĠIn come
2 02
Ġz ombies
F inal
ĠMill enn
Ġmod ifications
Ġ Vision
ĠM oses
v erb
iter ranean
Ġ Jet
Ġn aval
Ġ Agg
Ġ url
Ġvict ories
Ġnon etheless
Ġin just
Ġ Fact
ç ļ
Ġin sufficient
re view
f acebook
Ġnegoti ating
Ġguarant ees
i men
ut enberg
Ġg ambling
Ġcon gr
Lo ading
Ġnever theless
Ġpres idents
ĠIndust rial
Ġ 118
Ġp oured
ĠT ory
Ġ 175
Ġ: =
S cott
an gered
T ok
Ġorgan izers
M at
ĠG rowth
Ġad ul
Ġens ures
Ġ 117
é¾į å
Ġmass acre
Ġ grades
be fore
AD VERTISEMENT
Ġ Slow
ĠM MA
âĢĶ "
ĠV atican
Q aeda
Ġ owe
6 666
Ġ Sorry
ĠGr ass
Ġback grounds
Ġexha usted
Ġc lan
Ġcomprom ised
Ġ Elf
ĠIsa ac
en son
In vest
I FA
Ġ interrupted
ãĥī ãĥ©
Ġtw isted
ĠDr agons
M ode
ĠK remlin
Ġfer til
he res
p han
Ġ Node
f ed
ĠO rc
Ġunw illing
C ent
Ġprior it
Ġgrad uates
Ġsubject ive
Ġiss uing
Ġ Lt
Ġview er
Ġw oke
T hus
br ook
Ġde pressed
Ġbr acket
ĠG or
Ġ Fighting
Ġstr iker
R eport
ĠPort ugal
Ġne o
w ed
1 99
Ġflee ing
sh adow
ident ified
U SE
S team
Ġ stretched
Ġreve lations
ar ted
ĠD w
Ġal ignment
e ston
ĠJ ared
S ep
Ġ blogs
up date
g om
r isk
Ġc lash
Ġ Hour
Ġ runtime
Ġunw anted
Ġs cam
Ġ rack
Ġen light
on est
ĠF err
Ġconv ictions
Ġp iano
Ġcir culation
Ġ Welcome
Ġback lash
ĠW ade
Ġrece ivers
ot ive
J eff
Ġnet working
Ġ Prep
ĠExpl orer
Ġle cture
Ġup loaded
Ġ Meat
B LE
Ġ Nazis
ĠSy nd
st ud
r oots
r ians
Ġportray ed
Ġ ??
ĠBudd ha
s un
Ro bert
ĠCom plex
Ġover see
Ġste alth
T itle
ĠJ obs
ĠK um
Ġapp reciation
Ġ MOD
Ġbas ics
Ġ clips
Ġnurs ing
Ġpro position
Ġreal ised
ĠN YC
Ġall ocated
r ium
a ran
Ġ Production
Ġ Vote
Ġsm ugg
Ġ hunter
a zer
Ġ Changes
Ġfl uct
y on
Ar ray
Ġk its
W ater
Ġun common
Ġr esting
el ls
w ould
Ġpurs ued
Ġassert ion
ome town
ĠMos ul
Ġ Platform
io let
Ġshare holders
Ġtr ails
P ay
ĠEn forcement
t ypes
Ġ Anonymous
Ġsatisf ying
il ogy
Ġ ('
w ave
c ity
St eve
Ġconfront ation
ĠE ld
C apt
a han
h tm
Ġ Ctrl
O NS
2 30
i fa
h olding
Ġdel icate
Ġj aw
Ġ Going
o rum
S al
Ġd ull
ĠB eth
Ġpr isons
Ġe go
Ġ Elsa
avor ite
ĠG ang
ĠN uclear
Ġsp ider
at su
Ġsam pling
Ġabsor bed
ĠP harm
i eth
Ġb ucket
Ġ Recomm
O F
Ġ Factory
AN CE
Ġb acter
H as
ĠOb serv
1 21
Ġprem iere
De velop
Ġc urrencies
C ast
Ġaccompan ying
ĠNash ville
Ġfa tty
Ġ Brend
Ġ locks
Ġ centered
Ġ UT
aug hs
o rie
ĠAff ordable
v ance
D L
e met
Ġth rone
ĠBlu etooth
Ġn aming
i fts
A DE
Ġcorrect ed
Ġprompt ly
Ġ STR
Ġgen ome
Ġc ope
Ġval ley
Ġ rounded
ĠK end
al ion
p ers
Ġtour ism
Ġst ark
v l
Ġbl owing
ĠSche dule
s td
Ġun happy
Ġlit igation
c edes
Ġ android
Ġinteg ral
e rers
u ded
t ax
Ġre iter
ĠMot ors
oc iated
Ġwond ers
ĠA post
u cking
ĠRoose velt
f ram
Ġyield s
Ġconst itutes
a wk
Int erest
Ġinter im
Ġbreak through
ĠC her
Ġpro sec
ĠD j
Ġ MT
R esp
Ġ PT
Ġs perm
e dit
B T
Lin ux
count ry
le ague
Ġd ick
Ġ oct
Ġinsert ing
Ġsc ra
ĠBre wing
Ġ 1966
Ġ runners
Ġpl un
i dy
ĠD ian
Ġdys function
Ġex clusion
Ġdis gr
Ġincor porate
Ġrecon c
Ġn ominated
ĠAr cher
d raw
ache lor
Ġwrit ings
Ġsh allow
Ġh ast
ĠB MW
Ġ RS
Ġt high
Ġ 1963
Ġl amb
Ġf avored
ag le
Ġco oler
Ġ Hours
Ġ GU
Ġ Origin
Ġglim pse
---- ----------------
L im
Ġche ek
Ġj ealous
- '
Ġhar ness
ĠPo ison
Ġdis abilities
ne apolis
Ġout look
Ġnot ify
ĠIndian apolis
Ġab rupt
n sic
Ġ encrypted
Ġfor fe
re ath
Ġr abb
Ġfound ations
Ġcompl iment
Ġ Interview
Ġ Swe
Ġad olesc
Ġmon itors
ĠSacrament o
Ġtime ly
Ġcont empl
Ġposit ioned
Ġpo sters
ph ies
iov ascular
v oid
ĠFif th
Ġinvestig ative
O UN
Ġinteg rate
Ġ INC
i sha
ib lings
Ġ Request
ĠRodrig uez
Ġsl ides
Ġ DX
Ġfemin ism
Ġdat as
Ġb end
i rus
ĠNig eria
F ox
Ch ange
Ġair plane
ĠL aden
Ġpublic ity
ix ty
Ġcommit ments
Ġagg regate
Ġdis playing
ĠAr row
Ġ 122
Ġres pects
and roid
s ix
ĠS ha
Ġrest oration
) \
W S
o ys
Ġillust rate
with out
1 26
ĠâĶ Ĥ
Ġpick up
n els
Ġ ....
f ood
ĠF en
) ?
Ġphenomen a
Ġcompan ions
Ġ Write
Ġs pill
Ġb ridges
Ġ Updated
ĠF o
Ġinsect s
ASH INGTON
Ġs care
il tr
ĠZ hang
Ġsever ity
Ġind ul
1 49
ĠCo ffee
Ġnor ms
Ġp ulse
Ġ FT
Ġhorr ific
Ġ Destroy
Ġ JSON
Ġo live
Ġdiscuss es
R est
E lect
ĠW inn
ĠSurv iv
ĠH ait
S ure
o ped
Ġro oted
ĠS ke
ĠBron ze
Ġ lol
Def ault
Ġcommod ity
r edited
Ġliber tarian
Ġfor bidden
Ġ gran
à ¨
Ġ lag
e nz
d rive
Ġmathemat ics
Ġw ires
Ġcrit ically
Ġcarb ohyd
ĠChance llor
ĠEd die
Ġban ning
Ġ Fri
Ġcompl ications
et ric
ĠBangl adesh
Ġband width
S top
Ġ Originally
Ġhalf way
yn asty
sh ine
Ġt ales
r ities
a vier
Ġsp inning
Ġ WHO
Ġneighbour hood
b ach
Ġ commerce
ĠS le
B U
Ġentreprene ur
Ġpecul iar
Ġ Comments
f re
3 20
I CS
Ġimag ery
ĠC anon
ĠElect ronic
sh ort
( (
D ig
Ġcom mem
u ced
Ġinc lined
ĠSum mon
Ġcl iff
ĠMed iterranean
Ġpo etry
Ġprosper ity
ĠRe ce
Ġp ills
m ember
Ġfin ale
u nc
ĠG ig
ä ½
Ġl od
Ġback ward
- +
Ġ Forward
Ġth ri
s ure
Ġso ap
Ġ FX
R ES
Ġ Sexual
ou los
Ġfoo lish
Ġ righteous
Ġc off
terror ism
us tain
o ter
Ġab uses
n ext
Ġab usive
Ġthere after
Ġpro hibition
Ġ SUP
Ġd ip
Ġr ipped
Ġinher ited
Ġ bats
st ru
G T
Ġfl awed
ph abet
Ġf og
do ors
Ġim aging
Ġdig its
ĠHun gary
Ġar rog
Ġteach ings
Ġprotocol s
ĠB anks
à ¸
p ound
ĠC urt
. ")
. /
Ġex emption
end ix
ĠM ull
Ġimpro ves
Ġ Gamer
d imensional
I con
ĠMarg aret
St atus
d ates
Ġint ends
Ġde pict
Ġpar ked
J oe
ĠMar ines
chn ology
! ).
Ġjud ged
Ġ weights
R ay
Ġap artments
h ester
Ġrein force
Ġoff ender
oc cup
Ġs ore
e pt
ĠP HP
Ġ Brow
Ġauthor ization
ĠR isk
ĠDel aware
Ġ QU
Ġnot ifications
Ġsun light
Ġex clude
d at
Ġm esh
ĠSu dan
Ġbelong ed
Ġsub way
Ġ noon
ĠIn terior
ol ics
ĠL akers
Ġc oding
Dis claimer
Ca lif
O ld
Ġd isl
? ????
Ġconf irms
Ġrecruit ment
Ġhom icide
Cons ider
ĠJeff rey
f ty
} ;
Ġob jection
d oing
ĠLe o
W ant
Ġg low
ĠClar ke
ĠN orman
Ġve rification
Ġp acket
ĠForm ula
Ġp lag
es ville
Ġsh outing
Ġ ov
Ġ REC
ĠB ub
Ġn inth
Ġe nerg
Ġval idity
Ġ ups
j ack
Ġneighb oring
ĠN ec
e works
ĠH ab
a rez
Ġs pine
Ġevent ual
ĠLe aders
ĠC arn
Ġprob ation
Ġrom ance
m sg
ĠMech anical
E RY
R ock
Ġ partisan
N ode
as sets
m inent
Ġforeign ers
Ġtest ify
Ġ Usually
l ords
ĠG ren
ĠP owell
B IL
Ġ sr
Ġad dict
Ġsh ells
Ġs igh
ĠY ale
tern ity
Ġ 750
E U
ĠR ifle
Ġp atron
e ma
ĠB annon
an ity
Ġtrop ical
Ġ VII
c ross
Every thing
Ġ ISO
Ġh umble
as sing
Ġ FIG
Ġup dating
y son
Ġcal cium
Ġcompet ent
Ġst eering
P rot
Ġ SY
ĠF inals
ĠR ug
1 59
1 37
ĠG olf
Ġ 126
Ġaccommod ation
ĠHug hes
Ġa esthetic
art isan
ĠTw ilight
Ġpr ince
ĠAgric ulture
ĠD isco
Ġpreced ent
Ġty ping
author ized
O ption
ĠA ub
l ishes
a cht
m ag
P eter
ĠU FO
mo nton
ĠL ith
Ġa rom
Ġsec uring
Ġconf ined
priv ate
Ġs words
Ġmar kers
Ġmet abolic
s elect
ĠC urse
ĠO t
g ressive
Ġinc umb
ĠS aga
Ġ priced
Ġcl earance
C ontent
Ġdr illing
Ġnot ices
Ġb ourgeois
Ġ vest
Ġ cookie
ĠGuard ians
r ys
in yl
Ġ 124
Ġpl ausible
on gh
ĠO din
Ġcon ception
ĠY uk
ĠBaghd ad
Ġ Flag
Aust ral
ĠI BM
Ġintern ationally
ĠWiki Leaks
I ED
Ġc yn
Ġcho oses
ĠP ill
Ġcomb ining
Ġr adi
ĠMoh ammed
def ense
at ching
Sub ject
ic iency
F rame
Ġ {"
Ġc hess
Ġ timer
1 90
Ġ tin
Ġord inance
eme tery
Ġacc using
Ġnotice able
Ġcent res
Ġl id
ĠM ills
im gur
Ġz oom
erg ic
Ġcomp ression
p rim
f ind
Ġs urg
Ġp and
ĠK ee
ĠC had
cell ence
o yle
Ġsocial ism
ĠT ravis
Ġ MHz
Ġg uild
AL LY
Ġ Subscribe
Ġ Related
Ġocc urrence
it ching
Ġf ictional
Ġc rush
Ġ EA
c od
m ix
ĠTr iple
Ġret rieve
Ġstim ulus
Ġpsych iat
ĠD oor
Ġhomosexual ity
Ġelement ary
Ġce llular
id ian
Ġ Laun
Ġintrig uing
Ġfo am
ĠB ass
i di
it su
Ġas sure
Ġcongr at
Ġbusiness man
Ġ Boost
cl ose
Ġ lied
Ġsc iences
ĠO mega
Ġ Graphics
Ġ< =
sp oken
Ġconnect ivity
S aturday
ĠAv engers
Ġ toggle
Ġank le
Ġnation alist
mo del
Ġ Pool
oph obia
V ar
ĠM ons
at ories
Ġaggress ively
C lear
F orge
ac ters
Ġh edge
Ġp ipes
Ġbl unt
Ġ sq
Ġremote ly
W ed
a sers
Ġref riger
Ġt iles
Ġresc ued
Ġcompr ised
in sky
Ġman if
avan augh
Ġprol ifer
Ġ aligned
x ml
Ġt riv
Ġcoord ination
Ġ PER
Ġ Quote
1 34
b f
ĠS aw
Ġ termination
Ġ 190
Ġadd itions
Ġt rio
Ġproject ions
Ġposit ively
Ġin clusive
Ġmem br
1 990
o lder
Ġpract iced
ink le
Ar ch
Ġst arters
a rius
Ġinter mediate
Ġ Benef
ĠK iller
Ġinter ventions
ĠK il
Ġ Flying
I nv
Ġprem ature
Ġpsych iatric
Ġin die
Ġ collar
ĠRain bow
a fi
Ġdis ruption
Ġ FOX
c asting
Ġmis dem
c ro
Ġw ipe
ar don
Ġb ast
ĠTom my
ĠRepresent ative
Ġb elly
Ġ PO
ĠBre itbart
1 32
Ġmess aging
Sh ould
Ref erences
Ġ GRE
is tical
L P
ĠC av
ĠC razy
Ġ intuitive
ke eping
ĠM oss
Ġdis contin
Ġ Module
Ġun related
ĠPract ice
ĠTrans port
Ġstat istically
or ns
Ġ sized
p u
Ġc af
ĠWorld s
ĠRod gers
ĠL un
ĠC omic
l iving
Ġc ared
Ġclim bed
) {
Ġcons isted
Ġmed ieval
f olk
Ġh acked
Ġd ire
ĠHerm ione
Ġt ended
ce ans
D aniel
w ent
Ġlegisl ators
Ġr edes
g ames
Ġ gn
am iliar
Ġ ++
g gy
th reat
Ġmag net
Ġper ceive
Ġ zip
Ġindict ment
Ġcrit ique
g ard
Ġ Safe
ĠC ream
Ġad vent
o ba
Ġv owed
ous ands
Ġ ski
Ġabort ions
u art
Ġstun ned
Ġadv ancing
Ġl acked
Ġ \"
Ġsch izophren
Ġeleg ant
Ġconf erences
Ġcance led
ĠHud son
Ġ Hopefully
Ġ trump
Ġfrequ encies
Ġmet eor
ĠJun ior
ĠFle et
ĠMal colm
Ġ Tools
Ġ ........
Ġh obby
ĠEurope ans
Ġ 1500
ĠIn to
Ġs way
ĠAp pro
Ġ Compl
Comm unity
Ġt ide
ĠSum mit
ä »
Ġinter vals
ĠE ther
Ġhabit at
ĠStev ens
l ishing
Ġ Domain
Ġtrig gers
Ġch asing
Ġc harm
ĠF lower
it ored
Ġbl essing
Ġtext ures
F ive
Ġliqu or
R P
F IN
Ġ19 62
C AR
Un known
Ġre sil
ĠL ily
Ġabund ance
Ġpredic table
r ar
Ġbull shit
l een
c het
M or
M uch
ä ¹
Ġemphas ized
Ġc rust
Ġprim itive
Ġenjoy able
ĠPict ures
Ġteam mate
p ler
ĠT ol
ĠK ane
Ġsumm oned
t hy
r ama
ĠH onda
Ġreal izing
Ġqu icker
Ġconcent rate
c lear
Ġ 210
ĠErd ogan
a ris
Ġresp onds
Ġ BI
Ġelig ibility
Ġp ushes
ĠId aho
Ġagg rav
Ġru ins
u rations
Ġb ans
Ġa nat
s hare
Ġgr ind
h in
u men
Ġut ilities
ĠYan kees
Ġdat abases
Ġ DD
Ġdis placed
Ġdepend encies
Ġstim ulation
h un
h ouses
Ġ Pretty
ĠRav ens
ĠTO DAY
Ġassoci ates
Ġthe rape
c led
Ġd eer
Ġrep airs
rent ice
Ġrecept ors
Ġr emed
ĠC e
Ġmar riages
Ġball ots
ĠSold ier
Ġhilar ious
o pl
1 38
Ġinher ently
Ġignor ant
Ġb ounce
ĠE aster
REL ATED
ĠC urrency
E V
ãĥ ŀ
Ġ Lead
Ġdece ased
B rien
ĠM usk
J S
Ġmer ge
he arted
c reat
m itt
m und
Ġ âĢĭ
ĠB ag
Ġpro jection
Ġ java
ĠStand ards
ĠLeo nard
Ġcoc onut
Ġ Population
Ġtra ject
Ġim ply
Ġcur iosity
Ġ DB
Ġ Fresh
ĠP or
Ġhe avier
ne ys
gom ery
Ġde served
Ġphr ases
Ġ GC
Ġy east
d esc
De ath
Ġre boot
Ġ metadata
IC AL
Ġre pay
ĠInd ependence
Ġsub urban
ic als
Ġa top
Ġal location
gener ation
ĠG ram
Ġmoist ure
Ġ pine
ĠLiber als
Ġa ides
Ġund erest
Ġ Berry
Ġcer emon
3 70
a strous
ĠPi rates
Ġt ense
ĠIndust ries
ĠApp eals
Ġ Near
Ġè£ı ç
Ġl overs
Ġ CAP
ĠC raw
Ġg iants
Ġeffic acy
E lement
ĠBeh avior
ĠToy ota
Ġin test
P riv
A I
Ġmaneu ver
Ġperf ection
Ġ bang
p aper
r ill
Ge orge
b order
in ters
ĠS eth
Ġcl ues
ĠLe vi
ĠRe venue
1 47
Ġv apor
Ġf ortunate
Ġthreat ens
Ġ vet
Ġdepend ency
er sed
art icle
ĠBl izzard
Ġ chlor
Ġ minus
ĠB ills
Ġcrypto currency
Ġmetabol ism
t ering
Ġp estic
st eps
ĠTre asure
r acted
ĠCon stant
Ġ temp
1 39
ĠDet ective
ur ally
Ġrecover ing
Ġc ortex
Ġ 144
cl osed
Ġprejud ice
aun ted
Ġ storms
Ġ NOW
Ġmach inery
Ad dress
Ġcom pelled
2 70
Ġdes pair
b ane
Ġveget able
Ġb eds
Le arn
Ġcolor ful
Ġsp ike
Ġmar gins
Ġsym pathy
Ġ workshop
Ġ CBC
S at
Ġbur ns
Ġ Gender
Ġ 129
ĠC able
Ġdeb ts
ĠThe resa
Ġreflect ing
Ġa irst
Ġ rim
ra mid
Ġweak nesses
W rit
o ggle
t i
Ġ Charge
Ġwe ighed
Ġ( .
Ġ laughter
Ġr outer
ĠDem ocracy
D ear
Ġhas ht
Ġ dy
Ġh ints
r unning
Ġfin ishes
a rus
M ass
res ult
as cus
Ġv intage
Ġcon qu
Ġwild ly
ac ist
Ġl ingu
Ġprot agonist
st rom
t eenth
ĠS olo
m ac
f illed
Ġre nown
it ives
Ġm otive
ĠAn tar
ĠM ann
Ġ Adjust
Ġr ockets
Ġtrou bling
e i
Ġ organisms
as sis
Christ ian
Ġ 145
ĠH ass
Ġs wall
Ġw ax
ĠSurv ival
V S
ĠM urd
v d
stand ard
Ġdr agons
Ġacceler ation
r ational
f inal
Ġp aired
ĠE thereum
Ġinter faces
Ġ resent
Ġ artifacts
Å «
a rel
Ġcompet itor
ĠNich olas
ĠSur face
c pp
ĠT ot
Ġeconom ically
Ġorgan ised
Ġen forced
in ho
Ġvar ieties
Ġab dom
ĠBa iley
id av
ĠSa lv
p aid
Ġalt itude
ess ert
ĠG utenberg
a rea
op oulos
Ġprof essors
ig gs
ĠF ate
h ey
Ġ 3000
D ist
Ġtw ins
c ill
Ġ Maps
Ġtr aps
Ġ weed
ĠK iss
Ġy oga
Ġrecip ients
ĠWest minster
Ġp ools
ĠWal mart
1 88
ĠSch ools
att ack
Ġ ARM
par agraph
W arning
j l
Ġself ish
anch ez
ĠHe ights
F re
ĠS oph
Ġ --------------------------------
t ml
3 33
Ġra ids
Ġsatell ites
K EY
Ġl asts
Ñ Ĥ
I ns
ĠD ame
Ġunp redict
/ //
g hai
Ġart illery
Ġcru ise
Ġ gel
ĠCab inet
Ġbl ows
ĠE sp
Ġprox imity
o the
ĠSk ills
ĠU pper
o bo
ĠN DP
Ġenjoy s
Ġrep eating
Ġ Construction
Ġ Questions
H illary
Ġ uint
Ġproc essors
ĠGib son
Ġ Multiple
q a
ĠB om
ĠM iles
vent ional
Ġhur ts
s kin
Ġ AIDS
Ġadv isers
Ġ Root
Ġmethod ology
ĠD ale
Ġd eton
ĠKnow ledge
sequ ently
Ġ 121
Ġconnect s
C y
ĠD anger
Ġcontribut ors
ĠB ent
Ġbr ass
ĠG uns
in to
ĠFort une
Ġbr oker
ba lance
Ġleng ths
Ġ vic
Ġaver aging
Ġ appropriately
Ġ Camera
Ġsand wich
Ġ CDC
Ġco ordinate
Ġnav ig
Ġgood ness
l aim
Ġb rake
Ġextrem ist
ĠW ake
ĠM end
ĠT iny
Ġ COL
Ġ RF
Ġ Dual
ĠW ine
C ase
Ġr efined
Ġl amp
L ead
Ġb apt
ĠC arb
ĠS add
ĠMin neapolis
P DF
Ear ly
Ġ Hidden
I ts
Ġ TIME
Ġp ap
Ġcommission ed
Ġ Few
ĠCol ts
ĠB ren
Ġbot hered
Ġlike wise
Ex per
ĠSc hw
c ry
n n
ĠM itch
i mon
M G
b m
U MP
r ays
Ġreg istry
Ġ 270
ach ine
r ella
an ting
0 0000
Ġru ined
s pot
Ġ ta
Ġmax imize
Ġincon ven
D ead
H uman
En abled
Ġ Marie
Ġc hill
ĠParad ise
Ġstar ring
ĠLat ino
ĠProt ocol
ĠE VER
Ġsuppl iers
m essage
ĠB rock
Ġse rum
âĸĪâĸĪ âĸĪâĸĪ
Ġen comp
Ġamb ition
u ese
Ġar rows
And rew
Ġant enna
Ġ19 61
ĠB ark
Ġ bool
ã Ĥª
Ġ Storage
Ġrail way
Ġtoug her
ĠC ad
Ġ washing
P y
' ]
em bed
ĠMem phis
ack le
Ġfam ously
Ġ Fortunately
ov ies
Ġmind set
Ġsne ak
ĠD h
R AW
ĠSim pson
Ġli vest
Ġland mark
Ġc ement
L ow
Ġthr illed
Ġ Course
i nel
Ġch uck
i date
gl obal
Ġw hit
Ġ ï¿½
a days
s ki
ĠS V
Ġvir uses
3 06
ĠRe spons
Ġthe aters
ĠB ranch
ĠGen eva
Ġ MK
Ġunbel iev
Ġcommun ist
Orig inal
ĠRe ceived
Ġ Transfer
Ġ Arg
In put
ĠStr ategy
Ġpa lace
th ening
D ri
Ġsent encing
umbn ail
Ġ pins
re cy
Ġs iblings
G etting
Ġ BU
ĠNorth west
Ġprolong ed
ĠS akura
C omb
ĠB our
Ġinadequ ate
ĠK ash
Ġ username
Ġ Improve
Ġbatt ling
Ġ MAC
Ġcurric ulum
Ġs oda
ĠC annon
Ġs ensible
sp ons
De cember
Ġw icked
ĠP engu
Ġdict ators
ĠHe arts
o gyn
Ġsimilar ities
Ġ Stats
Ġh ollow
it ations
" :[
Ġ hover
Ġ Listen
s ch
S und
Ġc ad
ĠP arks
Ġl ur
Ġh ype
ĠL em
N AME
i sure
Fr iday
Ġsh oots
Ġcl oses
Ġ db
ĠR idge
Ġ Different
Ġrep lies
ĠBroad way
o pers
Ġint oler
ĠZ eus
ake spe
Ġpropri etary
Ġrequ esting
Ġcont rollers
Ġ MIN
i media
be cca
Ġexp ans
Ġo ils
B ot
ĠC hand
Ġpr inter
Ġt opped
Ġ POL
Ġ Earlier
S ocial
a vin
Ġdecre ases
ĠS eb
Ġspec ifications
ĠB last
ĠK urt
Ġfre el
B rown
Ġdi lig
r oe
Ġ Problem
ĠQu ad
Ġde central
Ġ Vector
a nut
Ġ plugins
ĠGreg ory
Ġf ucked
e lines
ĠAmb assador
t ake
Ġc leans
ong yang
An onymous
s tro
" }
a line
ĠO dd
ĠE ug
2 16
Ġb oil
ĠP owers
Ġn urses
Ob viously
Ġ Technical
Ġexce eded
O RS
Ġextrem ists
Ġtr aces
ex pl
Ġco mr
ĠS ach
) /
Ġm asks
Ġ sci
B on
Ġre gression
we gian
Ġad visor
it ures
Ġ Vo
ex ample
Ġ Instruct
Ġs iege
Ġred uctions
p tr
Ġstat utory
Ġrem oves
Ġp uck
red its
Ġ bee
Ġsa lad
Ġprom otions
Ġ Joshua
with standing
E TH
ĠC ha
i mus
Ġexpend iture
aun ting
Ġdelight ed
Ġ 155
b eh
Ġcar pet
ĠS part
Ġj ungle
l ists
Ġbul lying
ĠNo bel
ĠG len
Ġrefer enced
Ġintrodu ces
se in
Ġch opped
g lass
ĠW rest
Ġneutral ity
Ġ âĻ
Ġinvest igator
Ġshe lves
Ġun constitutional
Ġre production
Ġmer chant
m ia
Ġmet rics
Ġexplos ives
ĠS onia
Ġbod ily
Ġthick ness
Ġpredomin antly
Ġ Ability
Ġmon itored
I CH
Ġ ].
ĠMart inez
Ġvis ibility
Ġqu eries
Ġgen ocide
ĠWar fare
Qu ery
Ġstud ios
Ġemb ry
Ġcor ridor
Ġcle aned
com plete
Ġ MH
Ġen rollment
IN GS
Ġimp acted
Ġdis astrous
ĠY un
ĠCl aire
Ġ Basically
y t
ust erity
Ġindirect ly
w ik
Ġd od
ĠC arr
Ġ amp
Ġpro hibit
Ġ Initial
ĠR d
i ji
Ġeduc ate
c orn
i ott
ĠBeau ty
Ġdet ective
Ġ Conn
s ince
Ġst agger
Ġob ese
Ġb ree
olog ic
is se
w alker
Ġbl ades
Ġlaw ful
f unc
Ġ Behind
Ġappet ite
Ġ (*
Ġt ennis
Ġoff spring
Ġj ets
Ġstruct ured
Ġafore mentioned
N ov
Ġsc aling
f ill
Ġst ew
Ġc urb
ĠSte phan
ed In
S F
ob ic
é ŃĶ
o ug
Ġ MM
Ġgen etically
o pez
1 36
Ġ umb
an cers
Ġcoh ort
Ġmerch andise
Ġim posing
ĠLegisl ature
ĠArch ive
i via
ĠN aval
Ġoff ences
Ġmir acle
Ġsn apped
Ġf oes
Ġextensive ly
ĠR af
Ġc ater
ed ience
K it
ĠB in
Ġrecomm ends
ĠC ities
Ġrig id
Ġ READ
ĠNo ble
ĠT ian
Ġcertific ates
an tis
o iler
ĠBudd hist
d id
Ġsurv eyed
Ġdown ward
Ġ prints
Ġ Motion
r onics
ĠS ans
oss ibly
u ctions
Ġcol onies
ĠD anish
u nit
Ġsp oil
Ġad visory
ber ries
P lan
Ġspec ification
op hers
Ġ Resource
Ġ shirts
prising ly
commun ications
Ġtriv ial
Ġmention ing
i sexual
Ġsupp lements
Ġsuper vision
B P
v or
Ġ wit
Ġco oldown
Ġplaint iff
ĠRe views
ĠS ri
ĠM int
ĠS ugar
Ġafter ward
ĠPr iest
ĠInvest ment
og ene
Ġ Taking
Ġstret ching
Ġinflamm ation
ĠTe hran
Ġ lining
Ġfree zing
Ġ Entity
Ġins piring
spe cial
p rice
Ġs ue
ĠP orter
oun ge
E TA
ĠD erek
ĠLu is
u o
y mph
Ġex terior
ih il
ĠAsh ley
in ator
Ġnut rients
ĠTh rones
Ġf inances
ĠIn spect
Ġs pecially
Ġ Required
ĠP TS
ĠViol ence
oin ted
s hots
Ġex cerpt
c oon
I NS
ĠG ri
Ġrecogn ised
We ek
Yo ung
Ġv om
i sle
ĠC urry
ĠBud dh
Ġnot ebook
Ġd urable
/ ?
ĠG ad
ĠP upp
Ġfor give
p ark
Ġperson alities
an alysis
cl amation
Ġelev ator
Ġware house
Ġ Role
u nn
Ġill ustration
Ġ Scan
Ġatmosp heric
Im port
A NC
r icted
f u
0 10
Ġar che
Ġreward ed
akespe are
Ġin ternally
ĠR BI
al ker
Ġele phant
o witz
ĠP izza
Ġbi partisan
Ã© s
Ġsl owed
ĠSt ark
Ġover ride
O US
Ġ 320
undred s
ĠDe ck
ĠC ensus
b ee
1 46
o tor
Ġ ip
Ġ ub
oc ations
Ġ Button
r ice
Ġc ripp
f ff
Ġorig inated
Ġoverwhel med
a ppa
Ġfore most
âĢ ĳ
ĠL EG
re lease
eat ured
at ches
Ġr eps
Ġl ending
Ġ Reference
Ġ Client
1 65
v enth
Com plete
ĠPat rol
Ġs worn
c am
Ġshut tle
ĠR alph
Ġh ometown
- ,
on al
Ġ BP
å ı
Ġpersu ade
ĠAlex and
Ġcomb ines
Ġv ivid
ĠL ag
Ġenc oding
Ġsal vation
w en
ĠRec overy
i ya
Un iversity
ĠB iden
Ġbud gets
ĠTex ans
f its
Ġhon ored
Ġ python
T D
# ##
cl one
Ġb link
Ġ Liquid
Ġun employed
Ġcl ashes
ĠCoun sel
Ġdirect ing
Ġp unct
ĠFal cons
Ġsh ark
ĠDam ascus
Ġje ans
Ġemb ark
Ġse ize
Ġup wards
2 80
ĠE z
Ġ Anything
Ġex otic
l ower
ĠCre ator
Ġ Um
Ġsubur bs
ber ger
ĠW end
Ġ mint
Ġ XX
Ġ Dro
Ġsuff ers
Ġh erb
t ree
Ġfrag ile
Ġflo oded
ĠAl cohol
o lean
ny der
Ġ KO
F ram
Ġ 136
Ġ owed
ĠMe lee
Ġ Hash
Ġwh isk
Ġ sudo
r r
Qu ick
ap pro
Ġ ii
Ġ Examples
h ee
Ġprom otes
per ature
k ar
ĠHo nor
Ġs odium
ĠL if
ros so
intend ent
Ġcorrespond ent
F ound
sec ret
Ġident ifies
ag ne
Ġl ou
Ġ PP
Ġcoinc idence
m ove
Ġmil itia
Ġinf iltr
Ġ Primary
Ġp itching
ĠI b
ĠG OOD
ãĤ ¸
ĠW izards
i ral
ĠVen us
R R
Ġ âĢķ
ĠCa sey
Ġsad ly
Ġad mire
Ġembarrass ed
c b
M el
Ġt ubes
Ġbeaut ifully
ĠQueens land
Be low
r ez
qu et
ple asant
Ġ Â«
C amp
Ġdec isive
1 998
ĠL amb
ut ton
h n
ĠJ agu
a under
ĠC ord
Ġcl erk
Ġc affe
Ġw iped
Ġre im
ĠMount ains
Ġimprison ed
Ġdevelop s
ĠP ra
Ġmod eling
Any one
an cel
Ġ Sit
Ġshield s
Ġl awn
Ġcard iovascular
Ġdemonstr ating
Ġ parse
ĠIsrael is
Ġeuro s
1 43
Ġgl orious
in ski
e cd
Ġcondition ing
Ġhel pless
Ġmic rosc
ĠHar bor
Ġ stakes
Ġ 260
Ġun equ
ĠFl oyd
Ġd amp
Ġappar atus
ĠL aws
Ġc ounters
Ġind uce
a table
ĠAh med
Ġs lam
N ovember
Ġpers ist
Ġim minent
Ã¡ n
Ġsh red
Ġph ases
ĠEd monton
ĠArm strong
Ġ Meet
ĠK itty
Ñ Ģ
c irc
Ġ Adult
Ġa rose
ĠX en
D an
g ow
Ġsuper f
ĠAd mir
Ġend ure
Ġkey word
y rus
Ġy arn
Ġpath way
ĠHop kins
mi dt
Ġcens orship
d ependent
Ġinstr uctor
S ources
Ġ toe
Ġball oon
N ob
Ġs wear
ĠCa stro
Ġg loss
ĠK avanaugh
Ġremark ably
Ph otos
ĠN om
ĠS outheast
y ers
Ġval idation
Ġc annon
ĠVi ctory
Ġ Pierre
Ġcaut ious
Aud io
Ġf etch
ĠG ift
Ġ Hyp
Ġrem edy
Z E
Ġs cent
Ġ beard
ĠR ut
- "
Ġpat ents
H y
Ġun just
Ġpot ato
Ġforth coming
Ġch ef
ĠR ift
a ffe
Ġ ROM
Ġ Launch
Ġp ads
ĠNe o
Ġon set
Ġsquee ze
s afe
Ġ prefix
Ġ TM
Ġ Nearly
ĠCl inical
ĠM ental
ot iation
ĠU nic
an try
ĠC ir
Ġe pit
Ã ¦
Ġext racted
verse ly
ri ad
Ġstr ains
Ġ tops
Ġpo em
ĠR andy
ĠM aple
T HER
up iter
ĠS SD
ļ é
Ġun con
p ering
Ġsl ept
i ners
Ġunder water
Ġ Evidence
g one
2 05
Ġhist orians
Ġs ynthesis
Ġ frog
b asketball
Ġvib rant
Ġsub ord
Ġ 365
Ġ Dial
Ġcooper ate
HA HA
Ġgreet ed
1 58
Ġj azz
Ġint ox
ĠW alking
Ġsuper visor
ĠF usion
ĠMer cedes
s end
H am
s d
n l
Ġt ours
ĠF IFA
Ġc ulp
g d
3 04
Ġpl eas
Ġillust rates
ĠColomb ia
Ġhigh lighting
Ġ Summary
Ġex posing
ĠD ru
Ġir ony
r itional
ĠCar roll
ĠEl lis
P ict
ĠR apt
Ġad apter
Ġu nm
Ġcor pse
Ġceleb rities
D en
at um
ĠAp ocalypse
ĠW ag
l ining
Ġhorm ones
R ub
Ġ Xi
Ġ Vaults
2 08
alky rie
inos aur
Ġf eeds
v ity
Ġdef eating
W ait
Ġemphas ize
ĠSteel ers
yr inth
le ys
Ġ Whenever
Current ly
Ġ Clock
Ġcollect ively
an yon
Ġ JP
Ġment ality
Ġdown loads
Ġsurround ings
ĠBar nes
Ġflag ship
Ġind icators
Ġgr app
Jan uary
ĠEle mental
ĠAth ena
i bal
Ġs ights
Ġcap ita
ĠTreat y
Ġvo iced
ĠG az
l ette
Ġ ya
Ġex pired
Leg end
H ot
n ature
Ġun stable
Ġ 280
Ã º
Com ment
A LE
Ġqu ests
Ġ handler
n is
Ġvers atile
Ġconc eal
enge ance
ĠInter active
Ġobs essed
ĠD ogs
Ġcr acked
S ound
s v
ĠD ylan
ro ads
f x
ĠCath olics
ĠH ag
Ġsl ammed
Ġgl owing
s ale
Ġt issues
ĠC hi
n ee
Ġ cher
s ic
ur rection
Ġb acon
ul atory
) ."
Ġir regular
FO RM
as sed
Ġintent ional
Ġcompens ate
Ġ Speaking
ĠS ets
1 53
Ġcon ventions
b ands
e made
Ġe cc
ĠWin ston
ĠAss assin
ĠBel gian
Ġd ependence
Ġn iche
Ġb ark
ĠJ azz
Ġdisadvant age
Ġgas oline
Ġ 165
çļ Ħ
es sa
mo dule
ang ular
O Y
ĠT reatment
it as
o lation
ĠArn old
Ġfe ud
ĠN est
Ġthe atre
e water
Ġmin ors
ol icy
ĠH aven
di vision
Ġtr unk
F ar
Ġ Pull
Ġcapt uring
Ġ 1800
Ġ Teen
Ġex empl
Ġclin ics
ĠB urg
Ġsubst it
Ġpay load
ĠL av
ĠT roy
Ġ Witness
Ġfra gments
Ġpass words
Ġg ospel
ĠG in
Ġte nants
ol ith
S ix
Pre vious
ĠA ges
ĠDar win
Ġb lat
Ġem pathy
s mith
b ag
ĠE cho
ĠC amb
ĠM add
Ġ Boo
Ġr ede
ĠBur ning
Ġsmooth ly
ĠAd rian
ĠV ampire
ĠMon sters
s team
St yle
M a
r ea
ĠD war
aly st
urs or
Ġelim ination
Ġcrypt o
c ht
ĠE ternal
âĢ¦ ]
ĠS orce
I ll
N ER
Ġ uh
Con clusion
w age
Ġre spir
Ġrem inis
he tical
Ġ gy
Ġutil ized
ic idal
Ġ 1900
Ġhun ters
ĠS wan
ĠRe act
Ġvis itor
ĠThanks giving
3 08
Po sts
Ġ hips
1 997
o mers
Ġkn ocking
ĠVeh icle
Ġ til
Ġ 138
Ġ mi
ĠInvest igation
ĠKen ya
Ġcas ino
Ġmot ives
Ġre gain
r ex
Ġweek ends
Ġstab bed
b oro
Ġexplo ited
ĠHA VE
ĠTe levision
c ock
Ġprep arations
Ġende av
Ġ Remote
Ġ Maker
Ġ Produ
ĠE van
Ġinform ational
ĠLouis ville
1 54
ĠDre ams
Ġpl ots
Ġ Runner
Ġhur ting
Ġacad emy
ĠMont gomery
n m
ĠL anc
ĠAl z
2 10
e long
Ġretail er
Ġa rising
Ġrebell ion
Ġbl onde
pl ayed
Ġinstrument al
C ross
Ġret ention
Ġtherape utic
Ġs eas
Ġinf antry
ĠCl int
Ġprompt ing
Ġb itch
Ġst ems
ĠK ra
Ġt hesis
ĠB og
r ued
Ġk ings
Ġc lay
if icent
Ġ YES
ĠT hing
ĠC ubs
ve yard
el sh
in arily
Ġ Ey
ĠRo lling
Ġev olving
Ind ia
Ġrecogn izes
Ġgrad uation
i sers
Ġf ertility
ĠM ilan
Com mand
Ġ boxing
Ġ19 43
Ġgl uten
ĠE mir
Ġid ol
Ġcon ceived
ĠCre ation
Me rit
ud dy
uss ions
ĠLie utenant
ie tal
Ġun changed
Ġ Scale
ĠCrim ea
b alls
at orial
Ġdep ths
Ġempir ical
Ġtrans m
Ġun safe
miss ible
com fort
1 56
Ġmech anic
0 02
l ins
Ġsm oked
P os
Ġsl owing
Ġ lav
Tex as
Ġch eating
ĠMet ropolitan
eth yl
Ġdiscover ing
as se
Ġpen cil
ĠPy ongyang
Ġclo set
ĠS heet
Ġ Entry
ou stic
Ġmy st
e rate
ar iat
Ġmine rals
Ġmus ician
ĠP ul
ĠM az
2 49
Ġper missions
Ġ iv
en ary
ic kers
ĠB ing
h ea
en able
Ġgr iev
Ġassert ed
ĠCol onel
Ġaff idav
w o
Ġse ated
ĠR ide
Ġpaint ings
ĠP ix
Ġ 137
i shi
umb ai
g otten
ĠE arl
Ġ inning
Ġc ensus
Ġtrave lled
ĠCons ult
1 85
b ind
Ġsimpl icity
Ġoverl ooked
ĠHelp ful
Ġ monkey
Ġoverwhelm ingly
Bl ood
ĠFl int
ĠJ ama
Ġ Present
ĠR age
Ġ TA
pt ive
Ġturn out
w ald
ĠD olphins
Ġ VPN
Ġon ion
Ġcraft ing
m ma
ĠMerc ury
Ġar range
Ġalert s
Ġ OT
zb ollah
Ġg ases
ĠRichard son
s al
l ar
Ġf rost
Ġlow ering
Ġac claim
Ġstart ups
ĠG ain
ess ment
Ġguard ian
äº º
Ġ Pie
Ġ Links
Ġmer its
Ġa wake
Ġpar ental
Ġexc eeds
Ġid le
ĠP ilot
Ġe Bay
Ġ Accept
i peg
C am
ĠK ot
Ġtr aders
oli tics
un ker
ĠP ale
o si
an mar
Ġ19 47
ĠF ell
est ial
it ating
G F
ĠS r
if ted
Ġconn ector
Ġ Bone
il les
2 60
h ma
Ġover lap
ĠGit Hub
Ġclean er
ĠBapt ist
ĠW AS
Ġlun gs
Ñ ģ
Ġ BUT
Ġc ite
Ġp itched
reat ment
Ġtro phies
ĠN u
3 86
ĠP ride
Ġattend ees
[ ]
1 79
Ġsp atial
Ġpr izes
ĠRel igion
Ġshow case
Ġ Category
v idia
T arget
Pro perty
? ,
Ġf usion
p ie
ĠU CLA
Ġsound track
Ġprin cess
ĠC aval
sh ould
Ġlim bs
Back ground
Ġlone ly
Ġc ores
ĠT ail
s heet
Ġ 132
R a
ãĤ «
ĠB olt
Ġb ooked
Ġadmin ister
Ġequ als
w y
Ġob serving
ĠB aron
ĠAd obe
Ġv irgin
ĠSoci alist
M ove
gh azi
ĠL inda
2 12
Ġbre wing
Ġmerch ants
b urse
Ġdi vor
Ġmet als
ĠN er
Ġs ums
ĠEn emy
Ġen vision
Ġgr anting
ĠH oney
ĠSk yrim
Ġsoc io
gr aded
Ġselect ive
W ASHINGTON
Ġ19 48
ĠSi rius
ĠG ross
act ivity
ĠI van
Ġf urious
B SD
Ġ Previous
Ġ responsive
Ġchar itable
Ġ leaning
ĠP ew
Ġviol ates
\\\\ \\\\
Ġ Coming
w ire
Ġpo et
Ġres olutions
com mand
ĠPortug uese
Ġnick name
Ġde af
Feb ruary
Ġrecogn ise
Ġentire ty
Ġseas onal
pl aced
ĠTe legraph
Ġmicro phone
o uring
Ġgr ains
Ġgovern ed
Ġpos tp
ĠW aters
in ement
Ġun documented
ĠCom cast
Ġ fox
Ġass aults
r eon
m any
ĠJen kins
Ġ Anyway
Ġassess ments
Ġ downs
Ġ Mouse
Ġsup erb
k t
ĠD ow
Ġtax ation
4 01
Ġsm iles
Ġundert aken
Ġex h
Ġenthusi astic
Ġt went
Ġ governmental
Ġaut onomy
ĠTechn ologies
Ġ Chain
Ġpreval ent
f b
Ġnic otine
o gram
j ob
Ġawa iting
Ġ Menu
Ġdep uties
k ov
is hops
B utton
ĠShan ghai
Ġd iesel
ĠD uck
R yan
ĠP Cs
N F
j ury
en te
Ġinacc urate
ed dy
Wh atever
Ġshow c
ĠN ad
od us
e tr
Ġplaint iffs
Ġ WOR
ĠAss ange
Ġpriv at
Ġpremium s
Ġt am
U RL
Ġel ites
ĠR anger
otten ham
ĠH off
ĠA thens
Ġdef inite
Ġs ighed
Ġeven ly
2 11
ĠA mber
ak ia
Ġm ailing
Ġcr ashing
ĠConfeder ate
ru gged
W al
Ġ Depths
Ġjuven ile
Ġre actor
Introdu ction
ĠDel uxe
1 995
ĠS anchez
ĠM ead
i vable
: -
ĠPlan ning
ĠT rap
q uin
Ġ Protect
v ered
In formation
Ġkid ney
inn amon
l as
Ġpol icing
Ġtoler ate
ĠQ i
Ġ biased
F ort
ĠK i
s ave
Ġpriv ileged
Ġbe asts
ĠG las
ĠC inem
Ġcome back
Sun day
Ġext inction
h ops
Ġtrans mit
Ġdou bles
ĠF lat
1 67
Ġdis puted
Ġin justice
f oo
V ict
role um
ĠJu lie
Con text
ĠR arity
iss ue
Comp onent
Ġcounsel ing
an ne
d ark
Ġobject ions
u ilt
Ġg ast
Ġpl ac
Ġun used
ãĥ ĩ
ĠT rial
ĠJ as
hed ral
o bb
Ġtem poral
Ġ PRO
Ġ NW
ĠAnn iversary
L arge
Ġth erm
Ġd avid
Ġsystem ic
ĠSh ir
m ut
ĠN ept
ad dress
Ġscan ning
Ġunderstand able
Ġcan vas
C at
ĠZ oo
Ġang els
L O
Ġ Statement
ĠS ig
o vable
ĠA way
sh aring
oc rats
st ated
Ġweigh ing
N or
w ild
B ey
Ġaston ishing
ĠReyn olds
Ġop ener
Ġtr ainer
Ġs urgical
p n
Ġadj usting
whe el
Ġf rown
erv ative
Ġsus pend
Wi thin
te in
Ġobst acle
Ġliber ties
y mes
Ġur anium
ans om
an ol
u ba
ĠL oss
Ġa rous
ĠHend erson
W ow
s pl
c ur
Ġ ÂŃ
Ġthe irs
Da mage
Ġdown loading
Ġdis cern
ĠS to
Ġ Fla
Ġh ath
ĠA j
Ġun pleasant
Europe an
exp ensive
Ġsc reenshot
Ġ UV
Ġal lied
ĠPers ian
Ġmon opoly
Ġ atom
ĠReds kins
" ><
Ġcan cell
Ġcinem a
1 31
f air
ĠAl fred
Ġd uck
ar gs
2 23
ĠI SI
Ġsign aling
i nar
Ġ laughs
Ġfor wards
Ġreck less
Ġlist eners
at ivity
Ġvast ly
n ant
L ess
ĠHun ting
ĠScient ific
I TED
Ġk night
ĠH TC
u sa
t mp
Ġr ude
Ġ Legendary
Ġa rises
B ad
Ġ Claim
p eg
Ġre alities
Th ink
Ġ Â°
Ġr ode
Ġst rive
Ġan ecd
Ġsh orts
Ġhyp othes
Ġcoord inated
ĠGand hi
ĠF PS
R ED
Ġsuscept ible
Ġshr ink
Ġ Chart
He lp
Ġ ion
de ep
ri bes
ĠK ai
Ġ Customer
Sum mary
Ġc ough
w ife
Ġl end
Ġposition ing
Ġlot tery
ĠC anyon
Ġf ade
Ġbron ze
ĠK enny
Ġbo asts
Ġ Enhanced
rec ord
Ġemer gence
Ġ akin
ĠB ert
it ous
âĸ ĳ
Ġs tip
Ġex changed
o more
al sh
Ġreserv oir
Ġstand point
W M
Ġinit iate
Ġdec ay
Ġbrew ery
Ġter ribly
Ġm ortal
le vard
Ġre vis
N I
e lo
Ġconf ess
ĠMS NBC
Ġsub missions
Cont roller
Ġ 202
ĠR uth
} );
ĠAz ure
Ġ ."
2 06
ĠMark eting
Ġl aund
i encies
Ġren owned
ĠT rou
ĠN GO
b lems
Ġter rified
Ġwar ns
Ġ pert
Ġun sure
4 80
a lez
ul tz
Ġ Outside
Ġst yl
ĠUnder ground
Ġp anc
Ġd ictionary
Ġf oe
rim inal
ĠNor wegian
Ġj ailed
Ġm aternal
Ã© e
ĠLu cy
c op
C ho
Ġ unsigned
ĠZe lda
ĠIns ider
ĠContin ued
Ġ 133
ĠNar uto
ĠMaj ority
1 69
Ġ Wo
ãĤ ĵ
Ġpas tor
Ġinf ormal
Ð ½
an throp
j oin
ãģ Ĺ
it ational
N P
Ġ Writing
f n
ĠB ever
1 95
Ġy elling
Ġdr astically
Ġe ject
Ġne ut
Ġth rive
ĠF requ
o ux
Ġposs esses
ĠSen ators
Ġ DES
ĠSh akespeare
ĠFr anco
Ġ LB
u chi
Ġ incarn
Ġfo unders
F unction
Ġbright ness
Ġ BT
Ġwh ale
ĠThe ater
m ass
ĠD oll
S omething
Ġecho ed
ĠH ex
c rit
af ia
Ġgodd ess
Ġel even
Ġ Preview
ĠAur ora
Ġ 401
uls ive
ĠL ogan
in burgh
ĠCent ers
ĠON LY
Ġ Aid
Ġparad ox
Ġh urd
Ġ LC
D ue
c ourt
Ġoff ended
Ġeval uating
ĠMatt hews
Ġt omb
Ġpay roll
Ġext raction
ĠH ands
i fi
Ġsuper natural
ĠCO MM
] =
d ogs
Ġ 512
ĠMe eting
Rich ard
Ġ Maximum
Ġi deals
Th ings
m and
Ġ Regardless
Ġhum ili
b uffer
L ittle
ĠD ani
ĠN ak
Ġliber ation
ĠA be
Ġ OL
Ġst uffed
a ca
i nda
raph ic
Ġmo squ
Ġcampaign ing
Ġoccup y
S qu
r ina
ĠW el
Ġ VS
Ġphys ic
Ġp uls
r int
o aded
E TF
ĠArch ives
Ġven ues
h ner
ĠTur bo
Ġ lust
Ġappe aled
q uez
i lib
ĠTim othy
Ġo mn
d ro
Ġob session
ĠS avage
1 996
Gl obal
J es
2 14
Ġsl iding
Ġdis appro
ĠMag ical
Ġvol untarily
g b
a ney
Ġprop het
ĠRe in
ĠJ ulia
ĠW orth
a urus
Ġb ounds
i eu
) ))
Ġcr ore
ĠC itizen
S ky
Ġcolumn ist
Ġ seekers
on do
I SA
Ġ Length
Ġnost alg
Ġnew com
Ġdet rim
ent ric
3 75
Ġ GE
Ġau top
Ġacadem ics
App Data
ĠS hen
Ġid iot
ĠTrans it
Ġteasp oon
W il
K O
ĠCom edy
> ,
Ġpop ulated
W D
Ġp igs
ĠO culus
Ġsymp athetic
Ġmar athon
1 98
Ġseiz ure
s ided
Ġd op
irt ual
L and
ĠFl oor
osa urs
.. .]
Ġ los
Ġsubsid iary
E Y
Ġ Parts
ĠSt ef
ĠJud iciary
Ġ 134
Ġmir rors
Ġ ket
t imes
Ġneur olog
Ġc av
Ġ Guest
Ġtu mor
s cill
ĠLl oyd
E st
Ġcle arer
Ġstere otypes
Ġd ur
n othing
Red dit
Ġnegoti ated
---- --------------------
2 35
Ġfl own
ĠSe oul
ĠRes ident
ĠS CH
Ġdisapp earance
ĠV ince
g rown
Ġgr abs
r il
ĠInf inite
Ġ Twenty
Ġpedest rian
Ġjer sey
ĠF ur
ĠInf inity
ĠEll iott
Ġmen tor
Ġmor ally
Ġo bey
sec ure
i ffe
Ġantib iotics
ang led
ĠFre eman
Ġ Introduction
J un
Ġm arsh
ic ans
ĠEV ENTS
och ond
W all
ic ulty
Ġmisdem eanor
Ġ ly
Th omas
ĠRes olution
Ġanim ations
ĠD ry
Ġinter course
ĠNew castle
ĠH og
ĠEqu ipment
1 77
Ġterrit orial
Ġ archives
2 03
Fil ter
ĠMun ich
Ġcomm anded
ĠW and
Ġp itches
ĠCr oat
Ġrat ios
ĠM its
Ġaccum ulated
Ġ Specifically
Ġgentle man
ac erb
Ġp enn
Ġ aka
ĠF uk
Ġinterven e
ĠRef uge
ĠAlz heimer
Ġsuc cession
o han
d oes
L ord
Ġsep arat
Ġcorrespond ence
Ġsh iny
P rior
Ġs ulf
Ġmiser able
Ġded ication
( ).
Ġspecial ists
Ġdefect s
ĠC ult
ĠX ia
Ġje opard
Ġ Ore
Ab ility
Ġ lear
Ġamb itions
ĠB MI
ĠAr abs
Ġ19 42
Ġpres ervation
if icate
Ġash amed
l oss
ĠRest aur
Ġre semble
Ġen rich
Ġ KN
ĠC lan
fl oat
Ġplay able
I TT
Ġhar mony
ar rison
ĠWe instein
w ere
Ġpoison ing
ĠCom put
ĠWord Press
m ajor
ĠVal ve
F an
Ġ Throw
ĠRo mans
ĠDep ression
a dos
Ġtort ured
Ġbal ancing
bot tom
Ġacqu iring
ĠM onte
ar di
Ġ aura
Ġ ##
Ġ Standing
ĠAt las
C F
Ġintr ins
ĠBen ghazi
Ġc amping
Ġt apped
bl ade
st rous
ĠR abb
Ġ Written
t ip
Ġ Neigh
ster dam
Ġ Allow
ĠH ealing
ĠR hod
n um
Ġcaffe ine
Ġ Percent
Ġb oo
Ġap ples
3 05
Ġwel coming
Ġappl aud
Ġa usterity
Â ±
ĠRe ality
e fe
å ®
Ġs ucks
Ġt abs
ĠPay Pal
Ġback pack
Ġg ifted
abul ary
ĠSc out
ir teen
Ġ chin
Ġo mitted
Ġneg atively
Ġacc essing
Ġ Earn
Ġambul ance
Ġhead phones
Ġ 205
ĠRe fresh
p resident
ĠKit chen
ĠEn tered
ĠS nyder
0 05
om ical
Ġborrow ed
ĠN em
Ġa viation
Ġ stall
ri mination
Ġuniform s
i time
ĠSim mons
e nergy
ab lished
y y
qual ified
Ġrall ies
ĠSt uart
f light
Ġg angs
r ag
Ġv ault
l ux
Ġ Compar
Ġdesign ation
2 09
ĠJ os
d ollar
z ero
Ġw ells
3 03
Ġconstitu ents
Ġhe ck
Ġc ows
Ġcomm anders
Ġdiff erential
ĠC atherine
2 99
Ġval ve
Ġ brace
Ġperspect ives
c ert
f act
icular ly
ĠMc N
pl anes
Ġint ric
Ġp eas
o van
Ġtoss ed
r etch
ĠL opez
Ġunf amiliar
de ath
Ġ Apart
ĠC hang
Ġrel ieved
r ophe
Ġair ports
Ġfre ak
u til
M ill
ĠC hin
ĠO wen
m ale
ĠBr oken
ĠWin ds
r ob
r ising
Ġfire fighters
Ġauthor itarian
Ġ 148
Bit coin
ex ternal
Ġbrow sers
ich ever
o rian
Ġu nb
Ġ poke
ĠZ ot
M id
ĠPop ular
Ġco vert
Ġcont ributes
Ġ 650
Ġcont ention
G ate
Ġcons oles
Ġchrom os
Ġ IX
Ġvis ually
ĠE isen
Ġjewel ry
Ġdeleg ation
Ġacceler ate
ĠR iley
Ġsl ope
Ġin door
it ially
Ġhuge ly
Ġtun nels
Ġf ined
Ġdir ective
Ġfore head
ust omed
Ġsk ate
Mu sic
g as
Ġrecogn izing
am bo
Ġover weight
Ġ Grade
Ù Ĭ
Ġ sounding
Ġ locking
Ġ REM
St ore
Ġexc av
Ġ Likewise
ĠL ights
Ġel bow
ĠSup ply
w ic
Ġhand some
1 994
C oll
Ġadequ ately
ĠAss ociate
Ġstr ips
Ġcrack down
Ġmar vel
ĠK un
Ġpass ages
@@ @@
ĠT all
Ġthought ful
nam ese
Ġprost itution
bus iness
Ġball istic
pers onal
c ig
iz ational
R ound
ĠÂłĠÂł ĠÂłĠÂł
ĠCol eman
Ġad mitting
Ġ Plug
Ġbit coins
ĠS uz
Ġfair ness
Ġsupp lier
Ġcatast rophic
ĠHe len
o qu
M arc
ĠArt icles
g ie
Ġend angered
Ġdes tiny
ĠV olt
o lia
ax is
Ġ cheat
Ġun ified
I CO
qu ote
3 02
ĠS ed
Ġsupp ression
Ġanaly zing
Ġsqu at
Ġfig uring
Ġcoord inates
Ġch unks
Ġ19 46
Ġsu bp
Ġ wiki
ĠFor bes
ĠJ upiter
ĠE rik
i mer
Ġ Commercial
\ )
Ġlegitim acy
Ġd ental
ĠM ean
Ġdefic its
5 50
Orig inally
ĠHor ror
Ġcont amination
l lah
Ġconf isc
ĠCl are
T B
ĠF ailed
a ned
Ġr uler
Ġ Controller
Ġfemin ists
F ix
g ay
2 07
Ġr abbit
Th ird
own town
Ġgl ue
Ġvol atile
Ġsh ining
Ġf oll
Ġimp aired
Ġsu pers
æ Ī
Ġcl utch
ļé ĨĴ
Ġp rolet
Ġ( !
Ġy elled
ĠK iev
ĠE rn
Ġ Shock
K B
Ġsit uated
qu ery
ĠN as
Ġan nex
char acter
ĠHol iday
Ġautom ation
ĠJ ill
ĠRem astered
Ġl inem
Ġwild erness
ĠHor izon
ĠGu inea
A Z
Ġmain land
Ġsec recy
LE ASE
Ġ punk
ĠProv ince
( ),
S peed
Ġh anding
ĠSeb ast
S ir
r ase
Ġj ournals
Ġcon gest
ĠT ut
ir rel
Ġschizophren ia
Ġmis ogyn
health y
I ron
Ġre acted
- $
2 52
Ġpl ural
Ġpl um
Ġbar gain
Ġg rounded
f inder
Ġd isse
ĠL az
O OD
Ġat roc
F actory
Ġmin ions
Ġ ori
Ġ Brave
Ġ PRE
ĠMy anmar
ĠH od
Ġexp edition
Ġexpl ode
ĠCo ord
Ġex tr
ĠB rief
ĠAD HD
Ġhard core
fe eding
Ġd ile
ĠF ruit
Ġvacc ination
ĠM ao
osp here
Ġcon tests
- |
Ġf ren
isp here
R om
Ġ Sharp
Ġ Trend
Ġdis connect
âĢ¢ âĢ¢
Ġper secution
E arth
Ġhealth ier
3 84
Ġc ob
ĠTr inity
O WS
A NN
Ġspecial ty
Ġ gru
Ġco operative
w hy
Star ting
ĠIss ues
s tre
ens or
Ġ 185
Ad v
! ?
ĠRe vel
e mia
ĠH ulk
Ġceleb rations
ĠS ou
r aud
ĠK lein
Ġun real
con text
Ġpartner ships
Ġadop ting
t ical
Ġsp lash
ĠHe zbollah
c ategory
cycl op
x ton
ĠD ot
ur dy
t z
Ġenv elope
Ġ NL
â ķ
Ġwhere in
S pec
1 84
Ġte lev
al iation
Ġmy ths
å °
Ġrig orous
Ġcommun icating
Ġob server
Ġre he
ĠW ash
Ġapolog ized
ĠT in
Ġexpend itures
work ers
d ocument
Ġhes itate
Ġ Lenin
Ġunpredict able
Ġrenew al
c ler
ok ia
Ġ CONT
Ġpost season
To kens
Ġex acerb
Ġb etting
Ġ 147
Ġele vation
W ood
ĠSol omon
1 94
0 04
out put
Ġred und
ĠM umbai
Ġp H
Ġreprodu ce
Ġ Duration
M AX
Ġb og
C BS
Ġ Balance
ĠS gt
Ġ Recent
Ġ cd
Ġp opped
Ġincom pet
p rop
a yan
g uy
Pa cific
Ġt yr
Ġ {{
ĠMy stic
ĠD ana
Ġmast urb
Ġge ometry
Ã ¢
Ġ Correct
Ġtraject ory
Ġdist racted
Ġ foo
ĠW elsh
L uc
m ith
Ġrug by
Ġrespir atory
Ġtri angle
Ġ 215
Ġunder graduate
ĠSuper ior
ch anging
_ -
Ġright ly
Ġref eree
Ġluc rative
Ġun authorized
Ġresemb les
ĠGN U
ĠDer by
Ġpath ways
Ġ Led
Ġend urance
Ġst int
Ġcoll ector
F ast
Ġd ots
Ġnation als
ĠSec urities
Ġw hip
P aram
Ġlear ns
M agic
Ġdet ailing
m oon
Ġbroad casting
Ġb aked
2 65
hol m
Ġ Sah
ĠHus sein
Ġ Courtesy
1 74
Ġ 146
Ġge ographic
pe ace
Ġj udging
ĠS tern
B ur
Ġstory line
G un
ĠS tick
2 45
3 07
ãĤ´ ãĥ³
ĠAdminist rator
Ġbur nt
Ġp ave
ch oes
Ex ec
Ġcamp uses
Res ult
Ġm utations
ĠCh arter
Ġcapt ures
Ġcomp ares
Ġbad ge
S cient
Ġe rad
i ery
o i
e ttes
ĠE state
Ġ strap
Ġproud ly
Ġ fried
Ġwith drawn
ĠV oy
ph ony
It ems
ĠP ierce
b ard
Ġan notation
a nton
il lon
Im pro
.. .)
Ġhapp ier
- -----
ad just
Ġstaff ers
Ġact ivism
Ġpe rf
Ġal right
N eed
Ġcomm ence
Ġopio id
ĠAm anda
E s
ĠP ars
ĠK aw
W orks
2 48
Ġin do
t c
end ant
ĠM oto
Ġlegal ization
O TE
Ġtask ed
Ġt sp
ĠACT IONS
1 66
Ġrefres hing
Ġ NR
ĠPe rez
Ġinfring ement
S Y
Li sten
in ning
k u
Ġrot ate
p rogram
a rah
De sign
Ġ( Â£
Ġst oring
Ġwar rants
Ġjud gement
ĠB rist
us ually
ph oto
ĠR an
ĠP ine
Ġoutrage ous
ĠValent ine
lu ence
Ġ Everybody
Al tern
Ġrele vance
Ġterm inated
Ġd essert
Ġful filled
Ġprosec uted
Ġ Words
Ġm igrant
Ġcult ivation
ÃĥÃĤÃĥÃĤÃĥÃĤÃĥÃĤÃĥÃĤÃĥÃĤÃĥÃĤÃĥÃĤ ÃĥÃĤÃĥÃĤÃĥÃĤÃĥÃĤÃĥÃĤÃĥÃĤÃĥÃĤÃĥÃĤ
idel ity
ĠV ern
Ġ Login
Ġmetaph or
Ġ Tip
Ġrec ruits
ĠP ig
ri bing
Ġenthusi asts
ex per
Ġfright ening
ĠH air
an son
st rate
Ġ hi
H eight
Ġow ning
n one
Ġdis like
Ġkn ives
ph erd
Ġloud ly
ĠAP Is
Dis play
ĠL ac
Ġ USS
a bl
ver ages
J ew
Ġ 172
ĠHist orical
at oon
ĠPh ysics
in tern
Ġwarm th
Ġt opp
D M
Ġgun man
Ġem peror
o di
ãĥ £
in atory
ĠR ib
Ġ 131
ĠSa turn
ĠSh ining
Ġw aking
Qu otes
Ġcomed ian
en berg
Â ½
Ġbel ievers
Ġpaper work
c ustom
Ġ lev
Ġl ament
Ġp ouring
2 22
p olitical
Ġ Supplement
m aid
Ġcruel ty
Ġt read
ys ics
A w
r ites
Ġmod ifier
Ġ Position
A dam
l b
u bs
Ġim perfect
Ġcl usters
ĠEngine er
ĠC herry
Ġinaug uration
ĠS au
Ġembod iment
ĠUn cle
Ġov err
Ġexplos ions
c ule
ĠPrinc eton
ĠAnd rea
Ġincorrect ly
Ġearn est
Ġpil gr
ĠS print
Ġs leeve
Ġh ears
Ġ Amazing
Ġbrow sing
a gin
Ġhom eland
Ġ haw
Ġd iving
is tered
1 78
Ġbarg aining
Ġ Arcade
Ġde legate
t erson
................................ ................................
ĠJackson ville
2 75
Ġst agn
Ġa dam
ĠSh erman
C B
Ġsub urb
ĠFo ods
Ġcon verting
ĠA rist
Ġch ambers
l ove
Ġam ino
ĠG an
Ġmad ness
m c
Ġ USE
d efined
Ġul tr
in dust
Ġ wolves
l ance
Add itionally
Ġcr acks
as ia
Ġ Reason
ĠP ump
Ġacc idental
ĠL aser
ĠR id
Ġ initialized
e lli
Ġun named
Ġn oun
ĠP assed
Ġho stage
ĠEth iop
sh irts
Ġun rel
ĠEmb assy
Ġ19 41
Ġat oms
Ġpur ported
1 64
Ġ Fi
Ġgall ons
ĠM onica
Ġ pg
en ment
Ġs orted
ĠG ospel
Ġhe ights
Ġtr aced
Ġunder going
S hell
Ġs acks
Ġproport ions
Ġhall uc
F ont
ac et
Ġwar mer
Ġ INTER
Ġgrab bing
Pl ug
Ġreal ization
ĠBur ke
Ġen chant
A TER
ĠS eed
Ġabund ant
F M
Ġc ivic
V s
i si
Ġv ow
Ġr eper
ĠPartner ship
Ġpenet ration
Ġ axe
Ġsh attered
ĠZ ombies
Ġv inyl
Ġ Alert
e on
Ġoblig ed
ĠIl lust
ĠPl aza
ĠFront ier
Ġdavid jl
Ġ Serial
ĠH av
ĠNut rition
B i
Ġ âĸĪ
ĠJ ays
lin ux
Ġh urry
Ġ voy
Ġhop eless
ĠSte alth
Ġ ãģ
ess ors
t tle
b org
ĠSaf ari
f ell
Ġw ary
d ue
Ġ Above
H a
E LL
Ġn otor
ĠW on
T oo
Ġoccup ations
Ġposs essions
Ġinv iting
Ġpred ators
Ġacceler ated
Ġ 157
uter te
Ġ Cube
e ast
ac count
G ive
Ġtrans plant
red ients
id able
Ġsc reenshots
ĠG und
Ġ FS
Ġtrave lers
Ġsens ory
ĠF iat
ĠR ockets
İ ĭ
_ {
F riend
Ġch arming
A LS
Ġenjoy ment
m ph
Ġ 5000
Ġ REG
Ù Ĩ
b ia
Ġcomp ilation
r ost
Ġ VP
ĠSch ne
2 019
Ġcop ying
M ORE
ĠF lore
f alls
2 15
t otal
Ġdis ciples
d ouble
Ġexce eding
Ġsm ashed
Ġconcept ual
ĠRo mania
ĠB rent
Ġ ICE
ĠT ou
Ġg rap
Ġn ails
1 89
ãĥ ĺ
Ġproc ure
e ur
Ġconf irming
ĠC ec
a wi
ĠE den
Ġ ng
Ġengine ered
a tics
Ġh ooked
Ġdisg usting
ĠMur der
ãĤ ¿
L ibrary
Ġ 168
Al most
he matic
Me nu
ĠNo tre
ĠJ ur
Ġkidn apped
Ġh acker
ĠJ ade
Ġcreep y
Ġdra wings
ĠSpons or
Ġcycl ists
ĠGob lin
Ġoptim ized
Ġst aged
ĠMc D
bet ween
A ge
e no
S ex
Ġ Wide
n ings
a vis
Ġincap able
ĠK ob
Ġreward ing
ĠL one
ol escent
Ġcont racted
Ġst icky
J ose
B all
f est
Ġ Input
Ġ Recently
Ġto mat
squ are
App lication
Ġnit rogen
Ġdupl icate
ĠRe con
Ġ Dear
L ondon
Ġin tra
Ġd ock
Ġout reach
ĠM illion
Ġmamm als
am pton
V AL
Ġsn aps
Ġ dos
ĠW hole
Ġ Ready
T ry
ĠWinn ipeg
ea rance
Ġinc urred
ren ched
ĠN SW
i lot
r aine
Ġ cube
g ot
Ġrun way
etermin ed
ĠH awks
Ġsurviv or
ĠW ish
ĠD in
Ġ DEF
ĠV ault
1 87
Ġmush rooms
Ġcr isp
b ey
ĠD iscovery
Ġdevelop mental
Ġparad igm
Ġcha otic
ĠT su
Ġ 333
b ons
Ġb acterial
Ġcom mits
Ġcos mic
Ġ mega
oc ative
ĠP aint
oph obic
Ġv ain
Ġcar ved
ĠTh ief
ĠG ul
ow ship
Ġc ites
ĠEd inburgh
Ġdim inished
Ġacknowled ges
ĠK ills
Ġmi crow
ĠH era
Ġsen iors
Ġwhere by
H op
at ron
Ġun available
ĠN ate
Ġ 480
Ġs lated
ĠRe becca
Ġ Battery
Ġgram mar
Ġhead set
Ġc ursor
Ġ excluding
an ye
aund ering
e bin
Ġfeas ible
ĠPub lishing
ĠL abs
ĠCl iff
ĠFerr ari
Ġ pac
v isible
mar ked
p ell
Ġpo lite
Ġstagger ing
ĠGal actic
Ġsuper st
Ġp aran
Ġ Officers
ãĢ ģ
Ġspecific s
u lus
2 39
ĠP aste
A MP
ĠPan ama
Ġ Delete
an guard
res trial
Ġhero ic
ĠD y
Ø§ ÙĦ
Ġincumb ent
Ġcr unch
t ro
Ġsc oop
Ġblo gger
Ġse llers
u ren
Ġmedic ines
ĠC aps
Ġ Animation
o xy
Ġout ward
Ġinqu iries
2 29
Ġpsych ologist
ĠS ask
e vil
Ġcontam inated
ãĤ ¨
h erence
Ġ branded
ĠAbd ul
z h
Ġparagraph s
Ġ mins
Ġcor related
e rb
Ġim part
Ġmil estone
ĠS olutions
o tle
Ġunder cover
Ġmar ched
ĠChar gers
f ax
ĠSec rets
Ġr uth
we ather
Ġfemin ine
Ġs ham
Ġprest igious
ig gins
Ġ sung
hi story
e ttle
g gie
Ġout dated
o land
Ġper ceptions
Ġ Session
ĠDod gers
u j
Ġ END
D oc
Ġdef iciency
G rand
ĠJ oker
Ġretro spect
Ġdiagn ostic
Ġharm less
Ġr ogue
ĠA val
E qu
Ġtrans c
ĠRobert son
Ġ Depending
ĠBur ns
i vo
Ġhost ility
F eatures
ĵ ĺ
Ġdis comfort
ĠL CD
spec ified
ĠEx pect
3 40
Ġimpe rative
Ġ Regular
Ch inese
Ġstate wide
Ġs ymm
Ġl oops
Ġaut umn
N ick
Ġsh aping
Ġqu ot
Ġc herry
ĠCross ref
è¦ ļéĨĴ
Stand ard
h eed
ĠD ell
ĠViet namese
Ġ ost
ĠV alkyrie
O A
Ass ad
Ġre bound
ĠTra ffic
pl aces
æ ĺ
ĠB uc
1 72
Ġshel ters
Ġins isting
Ġ Certainly
ĠKenn eth
ĠT CP
Ġpen al
ĠRe play
he ard
Ġdial ect
i za
Ġ FY
it cher
Ġ DL
Ġsp iral
Ġquarter backs
Ġh ull
Ġ google
Ġt odd
ĠSter ling
ĠP late
Ġsp ying
m bol
ĠRe alm
ĠPro ced
Ġ Crash
Ġterm inate
Ġpro testing
C enter
gu ided
Ġun cover
Ġboy cott
Ġreal izes
s ound
Ġpret ending
ĠV as
1 980
Ġfr amed
Ġ 139
Ġdesc ended
Ġrehab ilitation
Ġborrow ing
ĠB uch
Ġbl ur
R on
ĠF rozen
en za
Ch ief
Ġ Poor
Ġtransl ates
M IN
Ġ 212
J ECT
Ġe rupted
Ġsucc esses
S EC
Ġpl ague
Ġg ems
d oms
Ġstret ches
ĠS py
Ġstory telling
C redit
Ġ Push
Ġt raction
Ġin effective
ĠL una
Ġt apes
Ġanaly tics
er cise
Ġprogram mes
ĠC arbon
Ġbe hold
he avy
ĠCons ervation
Ġ FIR
Ġs ack
ter min
r icks
Ġh oused
Ġun usually
I ce
Ġexec uting
ĠMo roc
e day
Ġed itions
Ġsm arter
Ġ BA
Ġout law
Ġvan ished
i ba
AL SE
ĠSil va
2 38
C ould
Ġphilos opher
Ġevac uated
Sec ret
1 42
Ġvis as
ã Ĥ¬
ĠM alt
Ġ Clearly
ĠN iger
ĠC airo
ĠF ist
3 80
ĠX ML
a uto
it ant
Ġrein forced
Rec ord
ĠSurviv or
G Hz
Ġscr ews
par ents
Ġo ceans
m ares
Ġbr akes
v asive
Ġ hello
Ġ SIM
r imp
Ġ ore
ĠArm our
2 47
Ġterr ific
Ġ tones
1 41
ĠMin utes
Ep isode
Ġcur ves
Ġ inflammatory
Ġbat ting
ĠBeaut iful
L ay
Ġun pop
v able
Ġ riots
ĠTac tics
b augh
ĠC ock
Ġorg asm
ĠS as
Ġconstruct or
e tz
G ov
Ġant agon
Ġt heat
Ġd eeds
h ao
c uts
ĠMc Cl
Ġ um
Ġ Scientists
Ġgrass roots
ys sey
"] =>
Ġsur faced
Ġsh ades
Ġneighb ours
Ġad vertis
o ya
Ġmer ged
Up on
Ġg ad
Ġanticip ate
Any way
Ġsl ogan
Ġdis respect
I ran
Ġ TB
ac ted
Ġsubp oen
medi ately
OO OO
Ġwa iver
Ġvulner abilities
ott esville
ĠHuff ington
J osh
Ġ DH
M onday
ĠEl len
K now
x on
it ems
2 28
Ġf ills
ĠN ike
Ġcum ulative
and als
I r
Ġ ì
Ġf riction
ig ator
Ġsc ans
ĠVi enna
l dom
Ġperform ers
P rim
Ġb idding
M ur
Ġle aned
ĠP rix
al ks
Ġ[ âĢ¦]
ĠT witch
Ġ Developer
ĠG ir
Ġ callback
Ab stract
Ġacc ustomed
Ġfree doms
Ġ PG
ur acy
Ġl ump
is man
,, ,,
1 992
Ġ RED
Ġ worm
M atch
ĠPl atinum
I J
Ġ Owner
Tr ivia
c ompl
Ġnew born
Ġfant as
O wn
Ġ 1959
Ġsym path
Ġub iqu
Ġoutp uts
Ġal lev
Ġp rag
K evin
Ġfav ors
Ġbu rial
Ġn urt
so lete
c ache
Ġ 156
Ġun locks
te chn
M aking
Ġcon quer
ad ic
æ ĸ
Ġ elf
Ġelect orate
ĠKur ds
Ġ Stack
ĠSam urai
Ġ âĺħ
Ġ{ }
Ġ Said
ĠFall out
Ġkind ness
ĠCust oms
ĠBou levard
Ġhelicop ters
o tics
ĠVe get
com ment
Ġcritic ised
Ġpo lished
ĠRe mix
ĠC ultural
Ġre cons
Ġ doi
a tem
S creen
Ġbar red
Com ments
Ġ Generally
Ġs lap
7 20
V ari
p ine
Ġ empt
Ġh ats
Ġ Playing
l ab
a verage
for ms
ĠC otton
Ġc ans
Ġ DON
ĠSom alia
C rypt
Ġ Increases
E ver
mod ern
Ġsur geon
3 000
Ġrandom ized
================================ ================================
B ern
im pl
Ġ COR
Ġpro claim
t house
Ġt oes
Ġ ample
Ġpre serving
Ġdis bel
g rand
B esides
Ġs ilk
Ġ Pattern
h m
Ġenter prises
Ġaffidav it
ĠAd visory
Ġadvert ised
ĠRel igious
se ctions
p sych
ĠField s
a ways
Ġhash tag
ĠNight mare
Ġv ampire
Ġfore nsic
ross over
n ar
Ġn avy
Ġvac ant
ĠD uel
Ġhall way
Ġ facebook
ident ally
ĠN RA
Ġm att
Ġhur ricane
ĠKir by
ĠP uzzle
Ġsk irt
o ust
d ullah
Ġan alogy
in ion
Ġtom atoes
Ġ NV
ĠPe ak
ĠMe yer
Ġappoint ments
Ġm asc
Ġal ley
re hend
Ġcha rities
Ġ undo
Ġdest inations
Ġ Testing
" ></
Ġdest ined
Ġimp lements
ĠHar old
R ECT
Ġoptim ization
Ġkilomet res
Ġ cmd
Ġimpair ment
Ġun successful
Ġswift ly
ĠGlas gow
ar ten
Ġ Shares
Ġ Answer
ĠAl bum
Ġnut ritional
ãĥ ĸ
ĠF ut
Ġb loc
ĠN FC
Ġwhole sale
Ġ CW
Ġneg lected
Ġlaun cher
Ġannounce ments
OU LD
c omb
Ġrot ating
Ġr ests
ĠT icket
che del
L ou
ĠV ic
Ġ "'
Ġtem plates
Ġre places
A rc
:: ::
ĠGil bert
Ġill nesses
Ġsched ules
Ġheter osexual
L INE
Ġhere in
Ġco erc
Ġdecre asing
Ġde portation
s udo
ĠInd igenous
Ġweigh s
A long
' );
ĠBeng als
7 07
Ġjo ints
ver ts
Ġ 149
n aire
Ġsimpl est
Ġ lore
1 080
f iction
Ġ Database
Ġres ervation
Ġs ou
Ġsan ctuary
aud io
a ple
Ġveget arian
Ġantic ipation
m icro
Ġen during
Ġdep arted
Ġside walk
Ġprohib its
Ġ Font
Ġcomp ute
ĠS ect
Ġ 158
B attle
Ġbo mber
Ġdist raction
Ġend ured
Ġpractition ers
Ġdist urbed
Ġd rank
ord ered
Ġsur prises
s eat
Sec urity
ĠW isdom
o go
Ġsub paragraph
ĠPen insula
ĠOri gins
i ren
ĠP av
i ggle
Ġgrat itude
ĠG ravity
o verty
i man
c tr
ĠCa esar
c ould
g em
Ġs kies
Ġch amp
Ġagree ing
F amily
D iv
1 76
Ġmes sy
um ption
F ederal
er no
Ġ Chat
Be yond
Ġde vote
ĠW alsh
Ġd umped
Ġaccum ulation
st ad
hib ition
Ġsm okers
Ġinspect or
F rench
is san
ĠV ita
Ġrese arching
R AM
ĠCel tics
Ġcl oak
ĠTer ra
M ary
s old
Ġ DOM
m ods
In tel
Ġmult itude
Ġ Improved
Ġrel iance
Ġart ifact
Ġal arming
P rom
h on
T ION
med ium
Ġre flex
ĠEx cel
Ġweak ened
1 63
2 24
Ġcost umes
Ġunique ly
Ġs orrow
Ġm ansion
w p
Ġsa lv
ĠGr ove
b sp
ĠS niper
Ġ Shipping
ĠP OW
Ġun dis
Ġbr anding
G irl
ĠAh mad
ĠL akes
ĠCo rey
Ġinher itance
e nery
Ġ packing
ĠP rest
D est
F W
Ġreg ulator
l ocked
Ġcon tested
ĠMel issa
ĠD uc
Ġun popular
Ġst acked
Ġ19 17
Ġy early
Ġst are
Ġass essing
Ã ¸
Ġbe verages
Ġcompet itions
Ġstreng thening
a long
ĠL ud
Ġmel ted
stan bul
Ġb ounty
E NC
ĠL ands
Ġdecl ares
Ġcustom ize
Ġcomp osite
ãĥ ¬
C M
og raphics
Ġ Temp
Ġcont ender
Ġin sign
Ġ LAN
Ġdis asters
ins pired
Ġjud gments
ustain able
urs ion
Ġvar iance
Ġ Ultimately
Ġ --------
u ador
ĠR X
Ġmel ting
ĠExt ended
Ġ Twe
M ajor
ĠB il
Ġsy rup
qu ick
ĠH older
Ġinnoc ence
U LE
ĠM ight
9 999
Ġ fal
Ġcontin uity
Ġ1 953
Ġ BS
st ill
L at
ĠAb use
Ġun supported
xxxx xxxx
Ġinst itute
Ġfra gment
ĠP ep
W estern
Ġ Cause
Ġ Frag
ĠA rs
à ¥
as tics
Ġ bishop
Ġcross es
Ġ 154
Ġ Upgrade
Ġmit igate
ĠRay mond
M ods
Ġtom ato
Ġst umbled
Ġdiff ers
In itial
ĠR aspberry
Ġign ores
Ġt ant
Ã ł
Ġre lay
Ġb isexual
Ġconf ession
Ġd ement
i nas
ĠHe ather
pl atform
dr iving
bo urg
ĠM ush
Ġhy ster
De tails
Ġd rift
ĠW ald
Ġ Luckily
o rf
Ġex pire
ĠP unch
zy me
g old
Ġun paid
ĠT rent
Ġun armed
Ġill icit
ĠT ottenham
Ġsm ash
Inter national
in ker
Ġs ting
ĠSad dam
Ġ ART
Ġtru ths
b irth
Ġs ober
Ġ Nit
Ġ ib
Ġ usable
Ġst acks
ĠSy lv
Ġnort heast
Ġd omination
ĠM our
EN SE
Ġ Measure
Ġprogram mer
Ġ< -
1 82
Ġ Condition
Ġback yard
ir ling
ĠJ eb
ĠC reed
ĠH ang
ĠCO MP
F ER
ĠI sh
Ġdetect ives
- --------------
ĠMess enger
Ġlo oph
Ġgate way
1 51
Ġ Materials
Ġ DT
Ġdo omed
o do
Ġsl ices
Ġem ailed
ĠPe rl
Ġre nov
U TH
od ynam
ĠSouth west
g etic
Ġ TPP
Ġoptim ism
ĠT ow
ul ators
prot ected
y les
Â «
Ġex ile
e nv
P rop
ĠZimmer man
Ù İ
C a
om aly
ãĥ Ĩ
Ġrail road
L ee
2 32
Ġrepl icate
Ġcomfort ably
act ly
Ġ rav
Ġtele scope
Ġho nesty
ĠPe pper
Ġ Bring
Ġric hest
Ġout doors
Ġh alls
Ġcont end
I SE
Ġsub mitting
Ġna ive
a rations
Ġ 143
Ġpo ised
respons ible
Ġs ocks
ĠSk ull
Quest ion
Ġdiscover ies
Jo ined
ĠEn emies
ĠWire less
ĠRe venge
Ġpuzz les
Ġce ased
2 90
cript ions
Ġ Console
Ġbo iling
Ġdisc rep
Ġde duction
Ġar senal
X XXX
ĠAm sterdam
rox imately
ĠSh ane
Ġ posing
ĠAC LU
Ġ Companies
Ġthe ology
ĠU g
qu arter
ĠH ank
C oin
Ġ Lv
Ġalleg ation
Ġ Avoid
Ġindef initely
Ġcommod ities
Ġb rig
ĠMa nit
Ġt enth
met hod
ĠKn icks
Ġ âĢİ
Ġinv oked
D ial
A RA
Ġc aucus
2 27
ĠJ ab
Ġ ounces
b ay
Ġb uddy
f an
2 34
ĠH il
a dh
Ġ TY
Ġ IND
Ġ19 39
Ġiter ation
ĠGonz alez
Ġ Vert
Ġ IO
e mb
r era
en ch
Ġ Requirements
ĠW ins
Ġlive stock
h ours
" âĢ¦
b ral
M arg
Ġ Done
Ġw asting
in ged
g roups
Ġw ishing
Ġ Tumblr
Ġt apping
Ġnational ism
ĠB yr
Ġsqu ares
ĠA ctions
ãĥ ¥
In side
de bug
Ġ append
Ġstub born
ĠC ind
T ell
Ġt earing
ĠR ey
o rc
ĠDa yton
Ġ NH
ĠMad ness
Ch arl
ĠMor rison
fil ter
Ġacc use
Ġ ./
Ġtor rent
Ġdec lines
g allery
M ine
Ġneg otiation
ĠBas har
op ia
1 993
e mort
ĠNo vel
ĠF ang
ers ive
Ġ Instant
Ġ roller
A round
ĠE lections
G ames
Ġin expensive
Ġw ors
Ġv ul
ĠH ole
Ġunbeliev able
Ġn ause
Ġen tr
b oat
Ġ STE
Ġ bush
ĠHas san
Ġ wo
Ġpa used
ĠM ig
l ived
Ġsc out
Ġl ith
P ublished
du ino
c ool
Ġcirc ulating
id as
ĠP am
viol ent
ĠCraw ford
udd le
ĠLet ters
Gu ard
m orph
Ġw andering
Ġsoph omore
Ġqu eer
ĠBl ind
r ue
ĠMar riage
D om
Ġ padding
Ġfold ers
Ġmeaning less
Ġcandid acy
a fort
Ġwhistle bl
ĠIdent ified
Ġcig ar
Ġ hid
ĠDub ai
Ġpost ure
Ġh iking
ĠTerm inal
Legend ary
Ġ TP
ĠAT K
ĠStar bucks
ĠR iot
19 91
Ġ Bottom
e ffic
ĠEug ene
ĠWy oming
ĠRoc ky
Ġsal mon
Ġme tro
Ġb ilateral
Ġcele brates
L ength
b illion
B at
Ġre leg
Ġpse udo
D T
ĠRh ode
P arent
ple tion
Ġatt ribut
Ġt uning
Ġ NOTE
ĠRe bel
i cus
F und
Ġcock tail
Ġ 501
Ġs poon
Ġbrut ality
Ġun ite
Ġmicro bi
ĠRe ich
pos itive
Ġam azed
Ġ NT
D esc
EC TION
Ġfalse ly
ĠHigh lander
ĠC rist
ĠVict orian
Ġdistribut ions
the ir
ĠE instein
Ġ pod
Ġep idem
Ġhe ap
ĠR anch
Ġan them
Ġre app
ĠAu burn
Ġcon current
Ġ Throughout
Ġ POST
â ĺ
Ġhom emade
k ick
B eg
Ġch assis
c ounter
Ġmer ger
Ġl aps
2 17
un ion
Ġ Trigger
Ġdeb ated
Ġsil ently
Ġrest raint
B al
0 000000
Ġform idable
ĠFi lip
Ġsacrific es
F ood
Ġdw arf
Ġ Sequ
i nian
More over
Ġt angible
op sis
Ġ Minecraft
Ġ Registration
o an
Ġrepresent ations
Ġ thirst
Ġc orp
ir ement
M ade
l oe
> "
c ats
* .
Ġgest ures
gen eral
Le ague
Ġp ackets
ĠInsp ector
ĠB erg
Ġfraud ulent
Ġcritic ize
F un
Ġbl aming
n dra
Ġs lash
ĠE ston
Ġpro posing
Ġwh ales
Ġther apist
Ġsub set
Ġle isure
E LD
Ġ CVE
Ġ Activity
Ġcul min
s hop
Ġ DAY
is cher
ĠAdmir al
ĠAtt acks
Ġ19 58
Ġmem oir
Ġf olded
Ġs exist
Ġ 153
Ġ LI
Ġread ings
Ġembarrass ment
ĠEmploy ment
w art
c hin
Ġcontin uation
l ia
Rec ently
Ġd uel
Ġevac uation
ĠKash mir
Ġdis position
ĠR ig
Ġbol ts
Ġins urers
4 67
M ex
Ġret aliation
Ġmis ery
Ġun reasonable
r aining
I mm
Ġ PU
e mer
Ġgen ital
ãĤ ³
ĠC andy
Ġon ions
ĠP att
l iner
Ġconc eded
Ġ fa
Ġf orc
ĠH ernandez
ĠGe off
de bian
ĠTe ams
Ġc ries
Ġhome owners
2 37
A BC
Ġst itch
Ġstat istic
Ġ headers
ĠB iology
Ġmot ors
Ġ GEN
ĠL ip
Ġh ates
Ġhe el
S elf
i pl
E DIT
or ting
Ġ annot
ĠSpe ech
old emort
ĠJ avascript
ĠLe Bron
Ġfoot print
Ġ fn
Ġseiz ures
n as
h ide
Ġ1 954
Ġ Bee
ĠDecl aration
ĠKa tie
Ġreserv ations
N R
f emale
Ġs aturated
Ġb iblical
Ġtr olls
De vice
ph otos
Ġd rums
ãĥīãĥ© ãĤ´ãĥ³
N ight
f ighter
ĠH ak
r iber
Ġc ush
Ġ disciplinary
b aum
Ġ GH
ĠSch midt
ilib rium
Ġs ixty
ĠKus hner
r ots
Ġp und
ĠR ac
Ġsp rings
Ġcon ve
Bus iness
F all
Ġqual ifications
Ġver ses
Ġnarc iss
ĠK oh
Ġ Wow
ĠCharl ottesville
e do
Ġinterrog ation
ĠW ool
3 65
B rian
Ġâľ ĵ
Ġalle ges
on ds
id ation
ĠJac kie
y u
Ġl akes
Ġworth while
Ġcry stals
ĠJ uda
Ġcomp rehend
Ġ flush
Ġabsor ption
Ġ OC
Ġfright ened
ĠCh ocolate
Mar tin
Ġbu ys
Ġ bucks
Ġap pell
ĠChampion ships
Ġlist ener
ĠDef ensive
Ġ cz
u ds
ĠM ate
Ġre play
Ġdecor ated
Ġs unk
ĠV IP
ĠAn k
Ġ 195
a aaa
No body
ĠM ilk
ĠG ur
ĠM k
ĠS ara
Ġs eating
ĠW id
T rack
Ġemploy s
Ġgig antic
A PP
ãĤ §
in ventory
Ġtow el
at che
l asting
Ġ TL
Ġlat ency
Ġk ne
B er
me aning
Ġup held
Ġplay ground
Ġm ant
S ide
Ġst ereo
Ġnorth west
Ġexception ally
Ġ rays
Ġrec urring
D rive
Ġup right
Ġab duct
ĠMar athon
Ġgood bye
Ġal phabet
h p
Ġcourt room
r ington
o thing
T ag
Ġdiplom ats
Ġbar bar
ĠA qua
1 83
3 333
Ġmat urity
Ġinst ability
ĠAp ache
Ġ ===
Ġf asting
Ġ Grid
Mod Loader
Ġ 152
A bs
ĠOper ating
e tti
Ġacqu aint
Don nell
ĠK em
Ġ Forge
Ġarm ored
M il
Ġphilos ophers
in vest
Pl ayers
â Ī
Ġmy riad
Ġcomr ades
R ot
Ġremember ing
Ġcorrespond s
Ġprogram mers
ĠLy nn
Ġo lig
Ġco herent
yn chron
ĠChem ical
Ġj ugg
p air
po sts
E ye
ĠIn ner
Ġsem ester
ot test
ĠEmir ates
ric anes
or ously
m its
ĠW is
Ġd odge
l ocation
Ġf aded
Am azon
ĠPro ceed
Ġ INFO
j ournal
ĠT ruck
T en
Ġ 217
Ġstat utes
m obile
Ġ Types
Re comm
b uster
p ex
Ġleg ends
Ġhead ache
f aced
ĠWi Fi
i fty
Ġ HER
Ġcirc uits
ER ROR
2 26
o lin
Ġcyl inder
o space
i kers
P rem
Qu ant
Ġconflic ting
Ġslight est
Ġfor ged
ion age
Ste phen
ĠK ub
ĠOpp ortun
ĠH eal
Ġb lo
Ġru lers
Ġh uh
Ġsub marine
f y
as ser
Ġallow ance
ĠKas ich
ĠT as
ĠAustral ians
Forge ModLoader
Ġ âĨĳ
Ġ Matrix
a mins
Ġ 1200
[...]
